#version: 0.2
h e</w>
i n
▁t he</w>
t i
e r
e n
e d</w>
a n
o n
a ▁
o r
o n</w>
▁o f</w>
a r
t ▁
e ▁
in g</w>
n d</w>
o u
e r</w>
o ▁
i ▁
e s
▁t o</w>
▁t h
e a
e s</w>
e c
i t
r o
i c
▁a nd</w>
o s
a l</w>
a ti
i s
i l
o r</w>
▁i n</w>
- @</w>
t h
o m
a l
e l
a t
a t</w>
@ -@</w>
u r
en t</w>
q u
a n</w>
▁i s</w>
t he</w>
a s</w>
t r
t s</w>
e n</w>
e m
p os
c e</w>
o t
o l
u s
v e</w>
t▁ he</w>
▁i n
a s
▁w h
a c
ati on</w>
i s</w>
l y</w>
i d
▁th at</w>
r e
n g</w>
i r
▁ e</w>
▁T he</w>
l e</w>
ot ;</w>
u c
i n</w>
t h</w>
i g
u l
r e</w>
u ▁
c h
▁f or</w>
pos ;
p ▁
a m
an d</w>
▁o n</w>
& a▁
ti on</w>
v er
e t
er e</w>
▁p ro
f f
s ▁
a g
qu ot;</w>
a y</w>
u n
r ▁
▁a s</w>
o f</w>
p l
it h</w>
▁i t</w>
i m
▁c on
t o</w>
▁b e</w>
t ed</w>
er s</w>
o o
▁r e
t er</w>
h ▁
&a▁ pos;
a▁ nd</w>
▁b y</w>
r es
o c
u t</w>
▁e x
o p
w ▁
▁s h
il l</w>
m ent</w>
o t</w>
u d
▁c om
s t
o u</w>
s e</w>
▁w ith</w>
i on</w>
▁h a
▁s t
▁w as</w>
o w
p or
a b
r i
it y</w>
e t</w>
c ▁
a d
on g</w>
▁a re</w>
e v
ou n
a p
p er
on s</w>
f ▁
l ▁
r ea
i c</w>
e▁ n
d ▁
s t</w>
t er
i▁ ng</w>
in ▁
at e</w>
al l</w>
i ti
▁w ill</w>
▁a l
u m
l d</w>
i t</w>
i d</w>
on g
a k
▁a t</w>
d uc
▁K or
& quot;</w>
ro m</w>
▁c h
a y
▁y ou</w>
f or
e x
i v
e e</w>
ic e</w>
t y</w>
▁th e
u b
m ▁
▁T h
c i
an ▁
e a</w>
▁, ,</w>
o w</w>
e d
ti ▁
▁b e
c h</w>
c on
▁ s</w>
e ar
&a▁pos; s</w>
an g
i z
b ▁
th ▁
▁ha ve</w>
p ro
ic h</w>
t ur
n ▁
y e
ea r</w>
▁f rom</w>
o ver
d s</w>
r ou
e p
s i
en ts</w>
p ec
i es</w>
en ▁
▁r es
e g
▁u n
i m</w>
▁h as</w>
c om
u e</w>
a r</w>
on al</w>
th er</w>
▁p l
▁a n</w>
▁a c
ar y</w>
d ing</w>
c l
en t
ig h
a t▁
▁I n</w>
i r</w>
▁p ar
e▁ r
▁n ot</w>
a in
▁C h
es s</w>
▁I t</w>
▁wh ich</w>
an ce</w>
t ing</w>
an t</w>
▁th is</w>
▁t r
& a
l l</w>
o▁ n</w>
t e</w>
▁p er
▁e n
▁w or
s o</w>
d er</w>
o v
g ▁
ou t</w>
▁o n
th ▁e</w>
es t</w>
a id</w>
over n
▁o r</w>
& ▁
e▁n t</w>
g h</w>
i al</w>
at ed</w>
g e</w>
▁ ed</w>
▁wh o</w>
a▁ r
u p
▁c an</w>
ff ic
ag e</w>
▁com p
▁a n
ou ld</w>
▁( (</w>
w i▁
uc h</w>
▁d is
o▁ n
or e</w>
▁a b
w h
ati ▁
ea n</w>
es s
▁ u
e w</w>
im e</w>
s s
il l
ar e</w>
▁sh all</w>
i f
▁b ut</w>
▁& quot;</w>
e l</w>
o▁ r
▁Kor ea</w>
a▁ n
em ent</w>
f ter</w>
on ▁
e▁ d</w>
ou r
s h
ti c
an y</w>
▁r ec
a us
ea d</w>
in is
r e▁
▁& qu
▁a d
o g
ol l
em b
o t▁
i▁ n
▁a p
t en
ye ong
▁ t</w>
i b
u ng</w>
in ce</w>
a in</w>
▁i m
as t</w>
k e</w>
ea s
u t
ou r</w>
i t▁
o▁ t
en ce</w>
an g</w>
ou s</w>
e y</w>
in g
e m</w>
tr y</w>
ak e</w>
▁w ere</w>
▁th ere</w>
▁f ir
▁h e</w>
ou ▁
op le</w>
er v
▁W h
am e</w>
m e</w>
u n</w>
ar ▁
o▁t ;</w>
o d
k s</w>
f▁ or</w>
e ople</w>
▁y ear</w>
▁t ime</w>
▁b ec
f or</w>
▁c l
- ▁
▁be en</w>
▁e v
es ti
& qu
▁a g
-▁ @</w>
om e</w>
0 0</w>
por t</w>
p r
in e</w>
ec t</w>
a m</w>
in▁ g</w>
el y</w>
cl ud
g i</w>
p▁ os
▁f or
; s</w>
k ing</w>
ati▁ on</w>
oo d</w>
▁I n
e f
▁i f</w>
or ▁
ot▁ ;</w>
tur e</w>
▁o r
aus e</w>
ub l
pos ▁
▁s aid</w>
an d
a f
s tr
a ir
@ -▁@</w>
▁al so</w>
▁Kor ean</w>
a d</w>
s ed</w>
th▁ at</w>
t▁ o</w>
al ly</w>
▁r el
igh t</w>
iti es</w>
ro v
al l
for m
b e</w>
a v
▁s uch</w>
▁s o</w>
ar d</w>
▁wh en</w>
ati ons</w>
ati onal</w>
▁p r
q ▁u
id e</w>
▁d o</w>
▁the y</w>
o▁ f</w>
▁the ir</w>
o m</w>
▁a fter</w>
▁p eople</w>
on e</w>
w▁ h
e▁ s</w>
▁m ore</w>
a e</w>
i ve</w>
p ar
res id
or s</w>
e en</w>
en c
▁con t
▁K im</w>
an▁ d</w>
om m
o b
e e
u l</w>
@ ▁
ad e</w>
u m</w>
e▁ c
an c
▁ ot;</w>
b y</w>
▁a t
ur e</w>
e▁ r</w>
o▁ s
@▁ -@</w>
t▁ h
an s</w>
ti v
y ▁
▁th an</w>
c or
o on</w>
▁p re
o o</w>
▁ab out</w>
ea l
pos ;</w>
▁S e
il e</w>
a ce</w>
t u
i ke</w>
o in
ab le</w>
os t</w>
er ▁
▁G yeong
▁d i
i l</w>
▁m e
us t</w>
u s</w>
it t
▁2 0
el l</w>
ar k
▁in v
▁fir st</w>
d i
▁h ead</w>
▁& a
e a▁
ubl ic</w>
▁ es</w>
C h
overn ment</w>
▁f ac
w o</w>
▁pro v
▁com m
▁s tr
▁w e</w>
p en
ar t
▁Th is</w>
an ag
▁h is</w>
pos; s</w>
t▁ er</w>
re e</w>
d ed</w>
e w
▁o ut</w>
n ing</w>
▁a r
es e</w>
i▁ n</w>
ver s
it h
▁m ay</w>
p res
al ▁
ay s</w>
s ti
▁s ec
p ol
▁in clud
ev el
▁u p</w>
▁A c
al s</w>
▁re g
▁m y</w>
▁con s
an s
wi▁ th</w>
l is
▁s up
▁s ub
▁h el
ci al</w>
▁in ter
▁on e</w>
d us
t▁ ed</w>
▁m on
d er
i ous</w>
m e▁nt</w>
es t
▁p ol
s u
ig n
d is
i p
ti▁ on</w>
c rea
▁bec ause</w>
s ec
ig h</w>
g h
▁e m
▁pro duc
▁Gyeong gi</w>
K or
or y</w>
oo l</w>
rou gh</w>
us in
g r
&a p▁os
▁o ffic
▁s p
▁c oun
▁I f</w>
ur r
▁s ch
t or</w>
it e</w>
or th</w>
as e</w>
b l
ati ve</w>
ou l</w>
il ▁
o d</w>
o p</w>
b er</w>
e on</w>
a▁ s</w>
ti ons</w>
▁i ts</w>
i a</w>
▁wh ere</w>
w as</w>
oo k</w>
ic al</w>
oc al</w>
ti ci
▁P ar
S e
a il
▁al l</w>
a w
&▁ a
a ve</w>
ow n</w>
▁ac c
▁per s
▁ h
▁A s</w>
l ec
▁m e</w>
s ing</w>
s ion</w>
ic ▁
o y
▁ha d</w>
os e</w>
ill ion</w>
▁o ther</w>
q▁u ot;</w>
▁f in
▁G u</w>
ol d</w>
s u▁
▁g overnment</w>
▁q u
w▁ as</w>
▁st ud
m s</w>
d r
k ed</w>
▁@ -@</w>
▁p os
y st
I n
ea se</w>
pro v
▁d ue</w>
e ed</w>
▁a m
ear s</w>
▁d ec
K ▁
por t
en d</w>
at ing</w>
a▁ t</w>
et w
▁y our</w>
f r▁
a▁ l
it s</w>
p r▁
▁o p
an n
e b
r ec
u r</w>
▁on ly</w>
▁W e</w>
s es</w>
e▁r s</w>
ir ec
, 0
f er
▁w on</w>
ti ve</w>
▁w ith
▁l ea
h ed</w>
▁p ublic</w>
▁Th ere</w>
g an
▁m emb
▁o per
a▁ re</w>
ri v
s i▁
o▁ r</w>
▁S t
in c
▁includ ing</w>
j u</w>
th at</w>
▁p ur
ing s</w>
ac h</w>
▁t wo</w>
ac k</w>
▁th rough</w>
ul ar</w>
ou gh</w>
s t▁
si b
h e▁
en ti
i ed</w>
w▁h o</w>
ul t</w>
a i▁
ig n</w>
f ir
▁U n
▁l ast</w>
el l
r y</w>
▁p res
ar ge</w>
i tion</w>
▁N orth</w>
▁m at
▁un der</w>
s pec
tici p
▁in crea
▁d ay</w>
enc y</w>
ec h
e ti
e h
in k</w>
j ect</w>
f l
evel op
gan iz
itt ee</w>
resid ent</w>
▁l ike</w>
▁t ea
i▁ ty</w>
S .</w>
▁P rov
r o▁
p h
▁s m
s el
e▁ re</w>
ark et</w>
▁A r
▁w ould</w>
an ies</w>
S ▁
▁k n
i p</w>
▁f l
w h▁
▁n um
m inis
et y</w>
sti tu
wi▁ ll</w>
v er</w>
2 0
▁M inis
▁n o</w>
en▁ t</w>
t ly</w>
il ity</w>
w ith</w>
a▁ n</w>
v is
s s</w>
c er
ou th</w>
▁d es
at es</w>
t ers</w>
▁d r
cor ding</w>
en ter</w>
o▁ ng</w>
ter n
ex t</w>
r el
esti g
▁n ew</w>
pos▁ ;s</w>
il y</w>
v ▁
ff er
▁m any</w>
ol og
▁b u
it ed</w>
▁&qu o▁t;</w>
i▁ c
▁20 1
i▁ ch</w>
ent ly</w>
id ed</w>
et ro
u g
▁h igh</w>
fr▁ om</w>
tr ▁
i▁ s</w>
▁Ch in
is t
v i
en d
com p
▁the m</w>
ff ice</w>
en er
▁m anag
▁s pec
ow ing</w>
i vers
▁Wh en</w>
▁num ber</w>
e ther</w>
▁s erv
▁ex pec
a▁ c
▁m ed
p on
b e▁
d o</w>
em s</w>
ur ing</w>
▁ap p
▁d el
yst em</w>
w or
▁sh ould</w>
k ▁
ti▁ ng</w>
v en
ro w
a▁ ll</w>
un ▁
▁rec e
ab lis
▁s c
usin ess</w>
o▁ m
a▁ te</w>
ang e</w>
▁v is
e o
ar g
u tion</w>
ic ation</w>
a▁ l</w>
if e</w>
▁C omm
ec ▁
ap o▁s
is e</w>
▁m ade</w>
▁s e
u p</w>
str uc
for e</w>
duc ation</w>
ec ess
,0 00</w>
j ▁
iz ed</w>
etro pol
▁l ocal</w>
. S.</w>
ou nd</w>
et ing</w>
o▁n s</w>
ac t</w>
ech n
▁comp anies</w>
d ay</w>
▁&qu ▁ot;</w>
w on</w>
us t
ti f
ic es</w>
am p
▁L ee</w>
▁g r
m er</w>
▁y ears</w>
▁an n
m an</w>
l l
▁in to</w>
▁Se oul</w>
&ap▁os ;
i ons</w>
d in
rou nd</w>
a w</w>
ev er</w>
▁com pl
▁hel d</w>
con om
ou s
▁H e</w>
▁c ar
i▁ al</w>
t▁ s</w>
▁e st
▁p h
▁o ver</w>
▁u se</w>
as s
ow er</w>
ul tur
t ro
s c
▁T r
▁comp any</w>
r ap
at er</w>
f ac
s p
▁c r
&a▁pos; ▁s</w>
on d</w>
an ts</w>
etw een</w>
minis tr
re a</w>
▁r ea
▁pro c
▁m ake</w>
▁t ake</w>
oc i
&▁ qu
c▁ h
▁re qu
▁wor k</w>
▁f oll
▁v ar
er y</w>
ti es</w>
▁ch il
▁b l
▁d o
ver y</w>
em ▁
▁b as
at▁ ion</w>
s ur
▁b etween</w>
s id
▁e ach</w>
▁ex per
o ve</w>
▁th ink</w>
gh t</w>
▁sup port</w>
ud g
▁ap pl
▁ n
▁N ational</w>
is ▁
er e
▁sch ool</w>
y ing</w>
▁st ar
com m
el ec
c oun
er g
P rov
h a▁
▁or der</w>
▁w ant</w>
▁m arket</w>
a u
▁P resident</w>
& q▁uot;</w>
u al</w>
▁memb ers</w>
▁t er
ecess ary</w>
in v
▁ev en</w>
h▁ as</w>
&a▁pos; ▁t</w>
▁in dus
s a▁
tic le</w>
▁par ticip
i e
j ec
es ▁
▁g o</w>
▁d ep
on▁ al</w>
▁wh ile</w>
el ▁
iz e</w>
▁b usiness</w>
▁d et
▁s ince</w>
ou ng</w>
i▁ on</w>
o▁ ut</w>
▁Ac cording</w>
v ir
e ong</w>
n ot</w>
ch ▁
rou p</w>
&▁ quot;</w>
i▁ ce</w>
f r
▁Y ou</w>
in d</w>
▁at ten
pl ▁
▁s u
▁inv estig
▁b r
h as</w>
m e
▁U .S.</w>
▁pro m
il ities</w>
ol ▁
▁n ecessary</w>
ur es</w>
▁tr ans
c ed</w>
&a pos;s</w>
w ill</w>
&▁a pos;</w>
l i
en g
▁d on</w>
wh i▁ch</w>
▁f am
▁&a pos;s</w>
i als</w>
▁g et</w>
m a▁
▁th ree</w>
ay ing</w>
▁J ap
at▁ ed</w>
t▁ h</w>
o l</w>
▁be ing</w>
▁est ablis
▁e ar
▁Prov ince</w>
e▁ n</w>
▁f e
▁g o
1 ▁
▁s ystem</w>
▁d evelop
▁w ell</w>
▁res id
u▁ r
▁c oll
&qu o▁t;</w>
d e</w>
▁c rea
is t</w>
▁P l
s e▁
▁D o</w>
p p
▁g ood</w>
▁Par k</w>
&qu ▁ot;</w>
▁s ome</w>
t a▁
pl oy
i ence</w>
ap p
▁A l
p re
▁in d
▁S h
b u
ul ▁
ou se</w>
▁pers on</w>
y ear</w>
u ation</w>
t a
▁e t
▁m a
▁per form
▁a ss
▁expec ted</w>
i▁ s
▁pl ace</w>
re g
▁&qu ot▁;</w>
sib le</w>
i▁ es</w>
e o</w>
h er</w>
▁ al</w>
e ed
tr ic
▁a m</w>
o k</w>
w ay</w>
▁i ss
▁c ould</w>
eas on</w>
art ment</w>
▁Minis try</w>
s he</w>
▁c as
ak ing</w>
▁ er</w>
▁n ext</w>
▁r em
▁an y</w>
▁m ov
▁pol ice</w>
d y</w>
▁p oin
▁o ur</w>
▁d irec
▁s ur
form ation</w>
ati o▁n</w>
er m
▁bu il
▁h ea
u▁ n
▁stud ents</w>
an▁ ce</w>
Kor e▁
oun t</w>
▁E n
an cial</w>
▁b el
▁s al
n am</w>
b▁ ut</w>
dr en</w>
▁c ase</w>
▁n eed</w>
e ts</w>
i onal</w>
m o▁
▁O n</w>
▁1 0</w>
ti me</w>
▁m ost</w>
tr ies</w>
▁e conom
o ther</w>
▁var ious</w>
on▁ g</w>
▁manag ement</w>
▁ac tiv
ain ed</w>
▁al l
y e▁
un g
an k</w>
▁or ganiz
en s</w>
▁) )</w>
▁re por
; t</w>
▁g u</w>
▁ex c
▁d uring</w>
i▁ t</w>
▁r a
▁s ame</w>
ab ▁
▁g u
d iti
▁t a
▁tea m</w>
p le</w>
▁be fore</w>
▁c er
▁c or
vir on
t e▁
▁offic ial</w>
b e
▁Ar ticle</w>
iv ing</w>
pr o▁
th ing</w>
our t</w>
p o▁s
▁Chin a</w>
G yeong
emb er</w>
oo per
▁F or
▁pro bl
▁u sed</w>
p▁ l
overn or</w>
or t</w>
n ed</w>
s on</w>
▁d ays</w>
▁wh at</w>
h o▁
▁h ow</w>
ff ▁
om ▁
tr ib
▁ann oun
r u
P ▁
el d</w>
▁m in
d▁ er</w>
n o▁
▁a rea</w>
oc ial</w>
oc k</w>
ultur al</w>
sh ip</w>
en▁ ts</w>
it al</w>
h▁ is</w>
▁A t</w>
air s</w>
▁cont in
i od</w>
▁e l
m ents</w>
o or</w>
▁at t
p o▁r
▁S outh</w>
l i▁
as s</w>
r ed</w>
e ong
&a▁pos; t</w>
▁m illion</w>
p s</w>
olog y</w>
T he</w>
▁w r
af t▁er</w>
▁n ow</w>
ac ▁
▁pro ject</w>
▁e ff
op e</w>
&qu ot▁;</w>
▁e lec
ti o▁n</w>
ain ing</w>
▁l ot</w>
l es</w>
▁di ffer
l e▁
ic y</w>
i um</w>
o▁ ul</w>
f rom</w>
▁C on
ch eon</w>
th is</w>
C ▁
si ve</w>
▁me eting</w>
g u</w>
▁a s
h is</w>
▁s l
un d
th er
▁s it
▁1 9
ib er
▁di ffic
A ▁
ivers ity</w>
ul ture</w>
m is
us ▁
▁ex pl
y p
w n</w>
o o▁
ic s</w>
a▁r y</w>
t ain</w>
e x</w>
K im</w>
▁g ener
▁a ff
o b</w>
in▁ ce</w>
▁par tic
f ul</w>
o k
▁v i
▁c urr
▁res pon
s aid</w>
m e▁
▁A m
f f</w>
▁wor ld</w>
ear ch</w>
wh o</w>
▁con cer
▁C ity</w>
y ou</w>
▁mon th</w>
▁l ong</w>
▁P ro
▁h er</w>
▁t ri
t ors</w>
iv ed</w>
&a▁ pos▁;s</w>
&a pos;</w>
▁“ “</w>
M ▁
▁kn ow</w>
it an</w>
c .</w>
ag rap
▁pl an</w>
▁f i
▁rel ated</w>
c ri
K or▁
od ay</w>
m on
▁with out</w>
▁con duc
th e▁
sel f</w>
o ti
o w▁
&a▁ po▁s
com e</w>
u▁ re</w>
al e</w>
▁d em
an t
em e▁nt</w>
l ed</w>
▁A ss
is m</w>
rou ▁
is h
l a▁
ow ed</w>
m y</w>
c o▁
n▁ ot</w>
m ed</w>
m ed
ha▁ ve</w>
ev ▁
&a▁pos; m</w>
▁f u
id ent</w>
▁f r
▁foll owing</w>
▁in formation</w>
▁w ee
is h</w>
anc es</w>
ot al</w>
en t▁
▁a round</w>
▁produc ts</w>
▁e ducation</w>
e t▁
▁Comm ittee</w>
r i▁
▁partic ular</w>
w ang
▁with in</w>
▁sm all</w>
en tr
▁Pl ease</w>
▁fac t</w>
s▁ t
▁H y
in d
f o▁r</w>
c c
▁ex p
▁c ity</w>
ic k
d u
Se o▁ul</w>
▁sec ond</w>
ac k
▁b o
▁serv ice</w>
▁s ee</w>
s an</w>
▁re f
y m
it ing</w>
om en</w>
is ion</w>
▁j ust</w>
al ity</w>
ci l</w>
2 ▁
▁r ight</w>
a ir</w>
th ough</w>
▁l arge</w>
s h▁
t ment</w>
▁o ffice</w>
s erv
▁ev ent</w>
▁g row
a▁ tion</w>
K▁ or
ow s</w>
l▁ y</w>
di tion</w>
U n
en se</w>
▁c o
il it
▁d id</w>
ab or</w>
▁o ut
ati on
k ers</w>
▁O r
f i▁
L ▁
al y
struc tion</w>
overn me▁nt</w>
eal th</w>
por ts</w>
af ety</w>
▁pre v
▁pr ice</w>
c us
for m</w>
▁Ac t</w>
a e
▁resid ents</w>
ul t
ent al</w>
▁ch ec
s up
h ave</w>
h ere
▁indus try</w>
d e▁
Kor▁ ea</w>
▁m eas
um p</w>
▁m uch</w>
m it</w>
▁d e
ust om
s▁ h
iti z
▁f ood</w>
ro w</w>
Kore▁ an</w>
▁l ife</w>
er ing</w>
e ign</w>
s ide</w>
b ut</w>
v en</w>
▁cons id
ur ▁
& apo▁s
ai▁ d</w>
re t
Kor ea</w>
▁M oon</w>
i an</w>
ea l</w>
all ed</w>
▁b ro
▁cas es</w>
t▁h at</w>
▁pro f
at t
os p
▁be g
▁increa se</w>
as ▁
a k</w>
▁h igh
▁s ol
▁spec ial</w>
▁coun try</w>
ag es</w>
ati on▁al</w>
ea s</w>
h y
l ine</w>
▁t otal</w>
i k
▁fac ilities</w>
▁e nd</w>
▁ p
▁s ti
es ted</w>
▁t echn
s l
n e▁
a p▁
s ung</w>
b ▁e</w>
a z
▁f il
g u
▁ter m</w>
y ung</w>
▁w ay</w>
ee p</w>
▁per iod</w>
iz ation</w>
b een</w>
i or</w>
▁am ong</w>
o▁ l
o i</w>
▁ th</w>
▁A n
▁m us
at ely</w>
▁chil dren</w>
v ing</w>
v es</w>
im es</w>
ati c</w>
i e</w>
th s</w>
ar ds</w>
uc c
▁Th at</w>
us e</w>
t▁ r
tr ac
▁ma j
th▁ er</w>
n er</w>
▁f un
a u▁
i g</w>
▁f ri
▁ex pen
▁wh ether</w>
▁v ery</w>
at a</w>
ow ever</w>
▁in st
ot h</w>
ain st</w>
▁re port</w>
an u
ec tion</w>
▁o b
un ity</w>
▁p op
here in
▁oper ation</w>
oo m</w>
ti l</w>
▁r ate</w>
al f</w>
a▁ ge</w>
C omm
m ak
pos e</w>
o p▁
▁A fter</w>
en▁ ce</w>
&a▁ pos▁
pl em
b le</w>
▁un der
▁r eal
▁th ▁e</w>
in cial</w>
el f
u te</w>
or k</w>
u th
▁G overnor</w>
ch ed</w>
ul ts</w>
ac c
▁Par ty</w>
▁f ound</w>
0 ,000</w>
d ic
▁g l
a▁ m
▁announ ced</w>
b u▁
agrap h</w>
▁b illion</w>
z e</w>
air man</w>
M etropol
▁h ear
ot e</w>
▁g rea
jec ts</w>
t▁ y</w>
ar t</w>
ak es</w>
ew s</w>
oc r
an ese</w>
▁ad v
us an</w>
▁th ose</w>
▁produc t</w>
c r
it▁ an</w>
▁ch ang
▁o cc
▁des ign
d i▁ng</w>
▁pl ay
▁Wh at</w>
G ▁
iti ▁
y o▁
d en</w>
con ▁
d i▁
il▁ l</w>
pres ent
▁th ese</w>
u▁ c
R W</w>
a ff
ep t</w>
ffic i
ac h
▁proc ess</w>
n▁ d</w>
ar m
ac hed</w>
og ether</w>
▁G ang
p ri
▁g roup</w>
▁J e
in es</w>
u ty</w>
is ed</w>
l o▁
T ▁
▁investig ation</w>
▁re v
w▁ on</w>
ut es</w>
▁in stitu
▁e as
om e
▁S am
w ard</w>
eas ed</w>
▁et c.</w>
. ▁
an ding</w>
▁w ater</w>
r em
▁inv est
▁in tro
c ent</w>
a▁ t
▁for mer</w>
en s
th a▁t</w>
▁c enter</w>
▁e very</w>
▁r o
ol e</w>
▁s aying</w>
l▁ ed</w>
ev el</w>
▁r et
od y</w>
▁develop ment</w>
▁t al
▁E x
o y</w>
▁u s</w>
▁l oc
▁fin ancial</w>
▁s us
a i</w>
t▁ ion</w>
c o▁n
▁mat ters</w>
▁s ay</w>
o▁n e</w>
▁Al though</w>
ar k</w>
w▁ ill</w>
i▁ d
h ib
▁H owever</w>
it▁ h</w>
igh ts</w>
m▁ an</w>
N ▁
p ly</w>
▁d oc
▁cont ro
er ▁s</w>
i▁ l
▁b udg
ie f</w>
▁perform ance</w>
in ter
▁h im</w>
▁o pen
▁s ign
▁U S</w>
▁am ount</w>
s ch
▁in ten
e▁ ss</w>
K▁ im</w>
c es</w>
▁im port
i ev
s ub
▁d ef
▁i d
din ance</w>
ur ity</w>
in ation</w>
b▁ er</w>
be▁ en</w>
he▁ ad</w>
▁repor ted</w>
s ai▁d</w>
tic s</w>
▁ch arge</w>
ob al</w>
▁com e</w>
u ed</w>
▁r eason</w>
▁ ot▁;</w>
en ds</w>
s um
e▁c t</w>
▁u s
▁ch ange</w>
▁s ocial</w>
▁pur su
▁diffic ult</w>
▁par ty</w>
▁s k
enti al</w>
m en▁t</w>
u▁ l
a▁n t</w>
ec ted</w>
v ed</w>
in ed</w>
d▁ ed</w>
ul l</w>
eg al</w>
D ▁
ec u
▁pro t
▁a ud
d ers</w>
esti v
u es</w>
ar ac
▁st at
▁n o
an ds</w>
▁par t</w>
ef t</w>
▁bec ome</w>
s e
▁ad ministr
▁i t
m .</w>
riv ate</w>
l oc
ou▁ ld</w>
▁fir e</w>
er ed</w>
m anag
in al</w>
i ver
n s</w>
▁& q▁uot;</w>
▁t rea
emb ly</w>
▁fam ily</w>
▁con struction</w>
etropol itan</w>
et ter</w>
ea t</w>
p ing</w>
▁h ome</w>
w e▁
f t
▁en ter
if ic
ou ght</w>
▁probl em</w>
at ur
▁pro sec
▁en tr
▁ag re
▁Th ey</w>
▁ag ain</w>
& q▁u
r d</w>
&a pos;
▁ad dition</w>
b e▁c
▁wor king</w>
▁C enter</w>
s o▁
▁c ustom
▁b ack</w>
n ow</w>
▁s elec
sa▁ id</w>
▁h ere</w>
▁J ae</w>
on t</w>
▁hel p</w>
b▁ y</w>
pl o
c▁ an</w>
ev ant</w>
▁pos sible</w>
esti c</w>
▁o ver
▁l o
▁offic ials</w>
for m▁
ir e</w>
▁prov ide</w>
l s</w>
▁pro gr
rea s</w>
▁comp eti
tr ial</w>
▁M y</w>
▁ ts</w>
c an</w>
s m
p ed</w>
oun d
ti c</w>
fer red</w>
▁F or</w>
▁sh ar
e▁ x
S t
▁h um
▁sit uation</w>
▁wh y</w>
▁ag ainst</w>
du ce</w>
er ▁e</w>
▁a uth
▁con fir
m▁ ent</w>
ov ▁
H ▁
▁differ ent</w>
Metropol it▁an</w>
▁coun tries</w>
u▁ n</w>
▁par agraph</w>
▁go ing</w>
▁u sing</w>
▁sal es</w>
▁Jap an</w>
our s</w>
f▁ f
a▁ y</w>
▁d am
20 1
▁inter n
▁M ar
c as
ain s</w>
en ted</w>
ug g
▁sti ll</w>
▁m od
ou▁ n
▁n ational</w>
d ep
▁s et</w>
r▁ ed</w>
eh ic
oin t</w>
▁Tr ump</w>
▁2 0</w>
▁d om
▁compl et
▁m ain
w o▁r
ir ed</w>
d le</w>
s▁ ed</w>
oun ▁
▁s im
▁en viron
c a▁
A ss
d ec
▁th ▁
▁p as
▁S ince</w>
▁rece ived</w>
p▁ le</w>
a▁ ng</w>
f in
tric t</w>
at ure</w>
B ▁
is ts</w>
n ess</w>
▁w at
uc l
iv es</w>
i▁ ts</w>
▁rec or
i o</w>
▁Chin ese</w>
▁th en</w>
air per
k i▁ng</w>
ir ▁
▁C oun
▁d own</w>
▁inter est</w>
i o▁n</w>
ea m</w>
▁d ata</w>
ig ▁h
ul ation</w>
ch ing</w>
duc ed</w>
▁t oday</w>
si a</w>
o ol
w ere</w>
▁mon ey</w>
ea d
▁maj or</w>
▁B usan</w>
id ▁
t o▁
▁c aus
▁s he</w>
▁3 0</w>
▁p ower</w>
t▁ or</w>
▁J ung</w>
ye ong</w>
▁P ol
vi ew</w>
▁an aly
▁m ain</w>
th▁ is</w>
po▁r t</w>
▁g ive</w>
▁c ap
o tion</w>
ar s</w>
tr act</w>
iv id
ri ed</w>
▁a reas</w>
on ed</w>
em ocr
▁meas ures</w>
pos ed</w>
▁import ant</w>
▁memb er</w>
▁pre par
lis h</w>
w e▁re</w>
▁in c
▁In tern
▁s er
iv ▁
is sion</w>
c o▁m
c t</w>
en ing</w>
▁dep artment</w>
▁e qu
a p</w>
▁Sam sung</w>
ov er</w>
tr uc
r a▁
elf are</w>
▁Un iversity</w>
▁res ult</w>
am ▁
▁pursu ant</w>
▁Minis ter</w>
on ▁s</w>
▁Jap anese</w>
rea dy</w>
▁un til</w>
▁r oom</w>
i▁ t
▁c ame</w>
i x</w>
▁econom ic</w>
o▁ us</w>
▁p rivate</w>
▁bas ed</w>
▁rel evant</w>
▁fu ture</w>
sib ility</w>
▁for eign</w>
su▁ ch</w>
on y</w>
C h▁
t e▁r
▁f our</w>
▁p ay</w>
b ec
a il</w>
▁ n</w>
▁dec ided</w>
▁increa sed</w>
u nd</w>
ur n</w>
▁l ear
▁em ploy
ex p
▁f ive</w>
a un
▁att ached</w>
▁per cent</w>
ti ce</w>
in clud
e▁ st</w>
▁l oo
res s</w>
ilit ary</w>
re a▁
estiv al</w>
ti▁ me</w>
ev en</w>
itiz ens</w>
el s</w>
▁Or dinance</w>
▁A n</w>
▁w in
▁b est</w>
▁Wh ere</w>
▁G wang
con t
▁p ay
▁l im
h av
▁v al
▁t imes</w>
▁h ope</w>
th▁ ey</w>
▁t ogether</w>
▁w ar
▁res ults</w>
J ▁
▁w omen</w>
G overnme▁nt</w>
▁h ol
n o</w>
e ir</w>
wh▁ en</w>
▁t oo</w>
▁n eed
h i▁
▁chec k</w>
is ing</w>
p o▁
ver y
▁budg et</w>
▁ear ly</w>
▁ab le</w>
▁O n
▁med ia</w>
o s</w>
am es</w>
▁n eg
▁in spec
E n
f o▁r
v ▁e</w>
▁ st</w>
re d
ep ar
m it
▁atten tion</w>
p a▁
▁vis it</w>
tur es</w>
pro duc
it▁ y</w>
▁pl ans</w>
f o▁
▁t em
▁exper ience</w>
d es
▁pur pose</w>
▁b ur
&▁qu o▁t;</w>
▁s um
▁im prov
0 th</w>
y▁ ou</w>
n ew</w>
▁do es</w>
g r▁
▁activ ities</w>
p e</w>
is tr
▁gener al</w>
n▁ g</w>
▁w ea
▁En g
ic▁ h</w>
o ffic
as ter</w>
a fter</w>
▁h alf</w>
▁comm ittee</w>
▁s ome
▁t ook</w>
m in
▁ta x</w>
es ts</w>
▁p ic
er ation</w>
ub l▁
un ic
at eg
▁m ust</w>
ir d</w>
pos ition</w>
▁rea l</w>
ay or</w>
r ic
o h
ex ▁
re qu
in dus
t▁ ry</w>
al▁ so</w>
A r
▁l aw
▁c ulture</w>
a th
▁sur v
id n</w>
▁op in
▁l eft</w>
g s</w>
iti ▁es</w>
s▁ o</w>
c al</w>
a in▁
▁tr ad
▁c ooper
u le</w>
▁&a pos;</w>
▁g ame</w>
▁y oung</w>
or ity</w>
. m.</w>
▁r ul
l▁ d</w>
i▁n e</w>
id dle</w>
▁p ast</w>
▁s ucc
il i
e e▁
▁F in
▁wee k</w>
b as
th▁ an</w>
▁grea t</w>
w il▁l</w>
▁ex pres
▁S up
▁s ite</w>
▁j ob</w>
w a▁s</w>
▁s afety</w>
▁p aid</w>
oc ▁
is si
▁l evel</w>
el f</w>
or ganiz
▁u r
▁h ard</w>
L ee</w>
▁cons um
a▁n y</w>
▁c ol
the▁ ir</w>
▁w ent</w>
▁fin d</w>
ann ot</w>
ib le</w>
▁m ar
▁H ow</w>
ar ed</w>
ye es</w>
E O</w>
y s</w>
res ▁
▁S ec
or▁ th</w>
▁E ducation</w>
y e</w>
▁en j
i▁ g
and id
▁l ow</w>
▁t our
on om
▁expen ses</w>
l ike</w>
yo▁ u</w>
w ays</w>
▁vi ol
m ore</w>
▁E ven</w>
▁prov ince</w>
▁c iv
▁pl ease</w>
▁mat er
i al
1 9
▁st or
▁ph ot
sh a▁ll</w>
no▁ t</w>
e▁ m
▁st and
▁S erv
us ed</w>
t or
d r▁
▁h ouse</w>
▁dom estic</w>
▁c ar</w>
p re▁
▁A d
ear ▁
b r
ti s
p▁os ;s</w>
ir st</w>
▁requ est</w>
th ers</w>
C ▁h
▁s end</w>
▁o ff</w>
▁iss ue</w>
▁buil ding</w>
fir ▁st</w>
s y
per ▁
d irec
ool s</w>
iz ▁ed</w>
h▁ er</w>
g o</w>
▁fe el</w>
e duc
▁m aking</w>
▁N ew</w>
e et</w>
▁K RW</w>
en ter
a▁ r</w>
a ther</w>
▁pres cri
ad ▁
▁h ou
at ten
is ting</w>
▁v ehic
u▁ ng</w>
▁v id
▁pol icy</w>
ubl▁ ic</w>
in a</w>
▁n ame</w>
ati o▁ns</w>
w e</w>
h ead</w>
▁b rea
▁on ce</w>
▁f oc
l ea
at or</w>
un▁ g</w>
▁ch arac
▁c alled</w>
tr on
▁re present
K o▁
▁re p
ar ding</w>
▁l abor</w>
▁aff airs</w>
ul ly</w>
em ents</w>
▁20 0
et t
as te</w>
▁wor kers</w>
▁det erm
▁ev al
id es</w>
▁W or
ti c▁
ar ▁e</w>
▁pur ch
h a▁s</w>
b ed</w>
eo p▁le</w>
▁techn ology</w>
▁m or
ir c
l ing</w>
▁sh ow</w>
ie ve</w>
▁sub sid
▁h ours</w>
▁h ist
si an</w>
▁prosec ution</w>
▁b ea
▁D a
ac es</w>
▁pro jects</w>
h ▁e</w>
2 0</w>
▁em erg
z ed</w>
▁s ing
d ong</w>
▁app ly</w>
y u</w>
ab▁ le</w>
0 s</w>
s p▁
t wo</w>
d en
▁v ol
rou▁ gh</w>
▁appl ication</w>
i e▁s</w>
▁se ems</w>
▁rece ive</w>
▁t yp
f am
▁dis cus
▁a ut
t e▁d</w>
▁o w
▁W ith</w>
oci ation</w>
l ▁e</w>
or m
ous ly</w>
P ro
▁rel eased</w>
y o</w>
u k</w>
pos▁ ;</w>
▁p ut</w>
▁C om
ess es</w>
▁l ik
▁c ou
l▁ l</w>
ye▁ ar</w>
d o▁
▁ex ch
s▁ t</w>
sur ance</w>
v i▁
plo yees</w>
1 0</w>
at▁ ional</w>
s▁ on</w>
▁s w
s ure</w>
▁su per
op er
e▁ ly</w>
es si
i f</w>
f ri
▁curr ent</w>
as h
▁al ready</w>
5 th</w>
at▁ e</w>
▁fr ont</w>
l d
▁con c
▁prov incial</w>
ar▁ ty</w>
oo ds</w>
ac tiv
▁ex am
st ud
ag ▁
O r
ch ool</w>
erg y</w>
ent ary</w>
R ▁
▁res earch</w>
▁C ourt</w>
▁expl ained</w>
▁M etropolitan</w>
tic al</w>
enc es</w>
ti m
▁c ultural</w>
re en</w>
wh▁ o</w>
i qu
re fer
mo▁ re</w>
▁c ri
▁c annot</w>
un e</w>
em ony</w>
▁in t
s w
p a▁r
▁c os
▁pay ment</w>
for ▁
▁R es
ro▁ m</w>
▁im plem
iv en</w>
ret ary</w>
8 th</w>
a▁n s</w>
▁l ook</w>
▁l aw</w>
in s
a▁r d</w>
▁D ec
h igh</w>
C on
▁g ot</w>
au▁ se</w>
ati▁ ve</w>
▁c our
▁D is
7 th</w>
oci ety</w>
▁star t</w>
e▁ t</w>
airper son</w>
▁poin t</w>
▁med ical</w>
▁d ate</w>
▁h ealth</w>
l ess</w>
▁o wn</w>
e er</w>
▁invest ment</w>
p▁ ro
m at
ar i
▁pr ices</w>
all s</w>
▁re ferred</w>
▁& apo▁s
p ur
b o
▁conduc ted</w>
g er</w>
stitu te</w>
amp ;</w>
ig▁h t</w>
ous eh
og n
▁b ody</w>
u ally</w>
▁gl obal</w>
▁m ilitary</w>
Se oul</w>
Prov in▁ce</w>
▁6 6</w>
▁s en
▁mon ths</w>
tif ic
w ang</w>
im ▁
an ks</w>
osp ital</w>
▁f ree</w>
▁Ass embly</w>
um ▁
▁pl an
▁grow th</w>
4 th</w>
3 ▁
pro ve</w>
ati s
tu al</w>
ex pec
▁ha pp
▁mus ic</w>
▁m an
▁a v
o ff
er c
fr as
es t▁
&a▁pos▁ ;t</w>
u b</w>
▁tr av
▁sch ed
▁ac cording</w>
it t▁
▁str ong</w>
itt le</w>
▁v ic
n ov
e▁ l
s ol
y ang</w>
wh ich</w>
▁se ver
a▁r s</w>
ul ar
▁me ans</w>
▁rec omm
e es</w>
▁Eng lish</w>
g y</w>
▁O ffice</w>
▁p ri
▁S o</w>
or row</w>
c▁ ed</w>
com pl
▁cor por
al▁ l</w>
▁u n</w>
▁G overnment</w>
▁Ch airman</w>
▁b oth</w>
▁pol iti
em p
al so</w>
k er</w>
iv er</w>
▁f ull</w>
▁Pol ice</w>
N ation▁al</w>
▁d riv
ig h▁
es s▁
ta ur
ai▁ r
▁I s</w>
▁me th
ou▁ r
l ast</w>
p e▁
▁c are</w>
▁m is
N or▁th</w>
. 5</w>
d▁ s</w>
▁p er</w>
▁c ourt</w>
med i
comp an
inc ▁e</w>
em or
al▁ ly</w>
r a
trib u
▁str eng
▁R ep
i ally</w>
es ter
a im
d▁ uc
▁ta x
▁c itizens</w>
▁l ive</w>
▁st ate</w>
▁d iv
▁under st
d el
▁l ess</w>
▁o ld</w>
1 st</w>
g over
▁Ch oi</w>
en ef
▁S u
is es</w>
n i▁ng</w>
refer r▁ed</w>
b usin
▁B ut</w>
tr ans
ay ▁
c ement</w>
en e</w>
▁l aun
▁l et</w>
▁econom y</w>
▁et c</w>
▁agre ement</w>
▁P r
▁H ong</w>
▁op en</w>
l o
▁a f
▁C an</w>
p e▁r
f i
d▁ ue</w>
am s</w>
▁l iving</w>
▁c ost</w>
M inis
anu fac
▁cl os
▁i ll
▁h ar
20 ▁
▁D ep
▁ag ency</w>
e on
▁s ide</w>
ep t
&qu ▁ot▁;</w>
▁Th en</w>
3 0</w>
▁serv ices</w>
5 0</w>
▁wh ▁
o ice</w>
▁M ay</w>
▁gr ad
▁th ings</w>
p▁ er
c y</w>
c l▁
▁environ ment</w>
duc tion</w>
c t
ail s</w>
▁ex hib
▁b ig</w>
▁F r
o▁r s</w>
▁t ak
▁s epar
p er</w>
pro f
bu▁ t</w>
en t▁s</w>
W e</w>
i▁c t</w>
▁Wh ile</w>
▁establis h</w>
▁Un ited</w>
▁as ked</w>
d ance</w>
▁t op</w>
ess ed</w>
▁pro per
ang u
un t
6 th</w>
ov ▁er</w>
▁direc tor</w>
▁h and
ch er</w>
▁In cheon</w>
ft en</w>
herein aft▁er</w>
j in</w>
o▁r y</w>
ic t</w>
w it▁h</w>
a▁l s</w>
▁hum an</w>
0 ▁
ti o▁ns</w>
Gyeong ▁
▁a ▁s</w>
▁d idn</w>
ail ed</w>
▁selec ted</w>
er al</w>
bu k</w>
▁g overn
e▁ on</w>
▁m ark
ti onal</w>
om s</w>
▁star ted</w>
m or
▁a w
n ers</w>
▁me et</w>
▁em ployees</w>
▁c anc
u ro
wor k</w>
on es</w>
▁p en
air m▁an</w>
im um</w>
d▁ o</w>
▁p ubl
pr▁ o
▁t est</w>
▁l ove</w>
i▁ le</w>
▁& ▁
&a▁pos; ▁
u ly</w>
▁b ook</w>
▁Coun cil</w>
▁&a pos;
m ing</w>
▁establis hed</w>
ym p
P ar
et ting</w>
▁particip ate</w>
▁H an
▁b oo
er n
&▁qu ot▁;</w>
▁prov ided</w>
g▁ u</w>
m ark
K▁or ean</w>
re f
n el</w>
▁vid eo</w>
▁1 5</w>
er ic
▁establis h
&▁qu ▁ot;</w>
t ain
ess ion</w>
▁tr ade</w>
I t</w>
▁m an</w>
▁del iber
▁pers ons</w>
ab ility</w>
la▁ st</w>
▁produc tion</w>
▁S ome</w>
▁R eg
▁app oin
fras truc
▁kn own</w>
en t▁er</w>
c▁ h</w>
▁lik ely</w>
▁rec ently</w>
a▁ ce</w>
p ic
ob ile</w>
▁l ed</w>
▁fi eld</w>
e▁ s
d e
▁ad diti
ess or</w>
▁a way</w>
p are</w>
at ory</w>
C om
entr al</w>
▁acc oun
w▁ ith</w>
▁me an
▁an other</w>
um ents</w>
ob s</w>
ay ed</w>
&a pos▁;s</w>
▁con tract</w>
b o▁
▁Serv ice</w>
ill age</w>
▁acc ident</w>
▁pl ay</w>
▁mov ie</w>
m o
▁chil d</w>
F ▁
eal ed</w>
resid e▁nt</w>
y n
g et</w>
ex per
i▁ ll
ur ch</w>
eo k</w>
d▁ ay</w>
▁crea te</w>
ud ▁
▁s oon</w>
all ing</w>
▁Y es</w>
hav ▁e</w>
a▁ g
ill s</w>
▁D ong</w>
▁bec ame</w>
▁1 00</w>
e ung</w>
▁cer emony</w>
▁h old</w>
o▁ re</w>
ec ts</w>
▁e very
&ap▁os ▁
▁M ayor</w>
T r
▁prev ent</w>
fer ence</w>
▁sub ject</w>
m ost</w>
▁tr aining</w>
▁ f</w>
▁J ong</w>
L▁ ee</w>
▁confir med</w>
ther n</w>
▁f ine</w>
▁dam age</w>
in t
ch es</w>
al k</w>
ul ations</w>
u▁ s
▁a ir
o▁ on</w>
w an</w>
pro c
e ff
▁administr ative</w>
e qu
f▁ or
c ar
▁s ent</w>
iti onal</w>
▁n ew
iz ing</w>
ci es</w>
▁beg an</w>
em ed</w>
▁p resident</w>
i et
g o▁
▁dem and</w>
; m</w>
in ess</w>
▁c ause</w>
re v
▁In dus
a▁ b
ou ▁t</w>
w or▁
eg ▁
▁open ing</w>
▁or ig
&apo▁s ;s</w>
▁dr am
em e</w>
▁pop ular</w>
▁competi tion</w>
eg e</w>
b an</w>
▁o ften</w>
▁con diti
▁par ents</w>
ag ed</w>
pri l</w>
o▁ w
ent ation</w>
▁progr am</w>
▁poin ted</w>
c o
▁w a
is hed</w>
Gyeong▁ gi</w>
▁stud y</w>
y our</w>
ur i▁ng</w>
e um</w>
▁B r
▁pr in
h▁ ad</w>
▁b etter</w>
c▁ on
f er</w>
m emb
▁t ▁
h ad</w>
▁mor ning</w>
A ct</w>
or por
n▁ ed</w>
▁con ven
▁Je ju</w>
d u▁c
▁organiz ations</w>
he▁ ld</w>
con s
▁S p
in ten
▁u p
▁sch ools</w>
oc k
mit ted</w>
mis sion</w>
ti▁ ve</w>
l ocal</w>
▁t aking</w>
ic▁ al</w>
par ticip
Kor ean</w>
▁l ate</w>
▁in come</w>
an k
ail y</w>
▁probl ems</w>
▁pre dic
ti l
▁T o</w>
e p</w>
om orrow</w>
bu il
▁p ati
▁ex ecu
ip ment</w>
th an</w>
ch ers</w>
ot ing</w>
re es</w>
▁pr ac
w ▁e</w>
urr ed</w>
t u▁
▁l ine</w>
c▁ l
g ency</w>
▁im prove</w>
r .</w>
ill i▁on</w>
▁s elf</w>
f oll
▁th ought</w>
▁st ock</w>
▁fl oor</w>
P a▁r
▁res taur
▁p at
em b▁er</w>
▁cl ass</w>
r is
e o▁
t ory</w>
E ▁
s it
ic ies</w>
ec ause</w>
▁t ur
▁n ight</w>
▁loc ated</w>
w ith
ill ed</w>
includ i▁ng</w>
▁al ong</w>
▁E lec
▁vis ited</w>
▁ind ivid
▁min utes</w>
as ed</w>
rea d</w>
; ▁s</w>
ed ly</w>
▁5 0</w>
▁trea tment</w>
▁th ird</w>
▁sp ace</w>
o▁ p
&a▁po▁s ;s</w>
ati▁ ng</w>
p ubl▁ic</w>
m eas
▁m iddle</w>
G u</w>
g o
th r▁
rel at▁ed</w>
m an
▁al ways</w>
v y</w>
▁pre pare</w>
▁con n
h o</w>
▁institu tions</w>
▁t ell</w>
g est</w>
▁inspec tion</w>
▁K ang</w>
▁caus ed</w>
▁intern ational</w>
s is</w>
a▁ me</w>
c ooper
▁contin ue</w>
ci ence</w>
as t
anc ▁e</w>
▁pers on
e▁r y</w>
▁v er
inv estig
ot el</w>
n▁ ew</w>
ic ▁e</w>
ex c
en ess</w>
▁res ol
d et
▁In stitute</w>
▁o vers
id ents</w>
▁l arg
▁Y oung</w>
▁des ign</w>
i b▁
S h
▁auth or
▁exper ts</w>
▁Gwang ju</w>
d evel
▁qu ality</w>
ver age</w>
th rou▁gh</w>
b or
ld n</w>
▁sh owed</w>
▁chang ed</w>
amp le</w>
iti▁ on</w>
▁D emocr
im in
▁1 2</w>
▁comm unity</w>
▁Mar ch</w>
l and</w>
▁ch arg
▁1 1</w>
rem e</w>
e f</w>
▁a ge</w>
t echn
▁a ir</w>
ap er</w>
▁w elfare</w>
▁lea st</w>
ch il
per s
J ap
res pon
▁n ews</w>
wh e▁re</w>
▁f ar</w>
i▁ n▁g</w>
iti ve</w>
▁l ittle</w>
▁sec urity</w>
i▁ m
it al
▁l os
▁l and</w>
G ang
a▁n ce</w>
▁c ard</w>
ib r
f t</w>
o th
w o▁n</w>
ou▁ nd</w>
▁n atur
d em
▁sh ort</w>
▁j udg
▁bas ic</w>
▁additi onal</w>
t▁ e</w>
f ied</w>
▁in surance</w>
id ay</w>
▁organiz ation</w>
c oll
▁Comm ission</w>
if ication</w>
▁Wor ld</w>
▁play ers</w>
▁no tif
▁in fl
at ors</w>
it er
▁bro ad
▁b us</w>
▁r is
▁ex isting</w>
▁appl ied</w>
es ▁s</w>
ap e</w>
cl os
ro ss</w>
▁s em
ad v
e▁ nd</w>
g ue</w>
itt▁ ee</w>
▁re vis
▁S he</w>
▁prev ious</w>
▁an y
▁For m</w>
▁1 1
em ploy
▁g iven</w>
▁c irc
o g▁
▁st ore</w>
qu art
▁fe es</w>
▁ap prov
m a
▁st age</w>
an ted</w>
▁hist ory</w>
id ing</w>
▁ad ded</w>
itt en</w>
or ts</w>
d evelop
▁Ch o</w>
i▁ ll</w>
▁n on</w>
si▁ on</w>
ow n
e▁ en</w>
▁T a
eg r
ea th</w>
▁B ecause</w>
i on
h▁ ed</w>
u▁ st</w>
ac y</w>
us tice</w>
m os
ab o▁ut</w>
▁direc tly</w>
r▁ es
ound ation</w>
cl es</w>
e k</w>
c are</w>
e d▁
▁b enef
oc c
if ied</w>
p eop▁le</w>
▁1 0
h▁ ave</w>
▁St ates</w>
p o</w>
w▁h ich</w>
▁con f
ad em
&q▁u o▁t;</w>
p tion</w>
▁prom ote</w>
▁l ater</w>
anufac tur
ter ed</w>
r up
▁val ue</w>
und ai</w>
an▁ g</w>
▁a n▁d</w>
▁enj oy</w>
ministr ation</w>
▁o ff
ann oun
e y
our ces</w>
▁Am eric
in king</w>
▁k eep</w>
▁rec ogn
▁bu y</w>
au gh
▁E m
▁f ea
▁c andid
der g
▁Intern ational</w>
ye on</w>
▁d ev
y ou▁
o o▁n</w>
▁Am ong</w>
ur ed</w>
ou t
g ed</w>
Gyeong gi</w>
▁real ly</w>
▁surv ey</w>
vers y</w>
ic k</w>
un d▁er</w>
s us
▁ha ving</w>
▁at trac
▁tak en</w>
pl ac
▁custom ers</w>
▁b or
▁fac ility</w>
o▁n g
sl and</w>
c▁ om
on al
▁op port
d ent</w>
O ▁
▁ac cor
▁for m
▁f ans</w>
on▁ ly</w>
g en
▁wor ks</w>
▁Prov ided</w>
e ep
e ans</w>
▁fri ends</w>
▁fin al</w>
▁G roup</w>
t▁ wo</w>
ati ves</w>
▁” ”</w>
ea ce</w>
Y ▁
E x
ear ed</w>
▁th ough</w>
▁represent ative</w>
ucl ear
▁j oint</w>
ip s</w>
t ak
af e</w>
▁mater ials</w>
th em</w>
▁ro ad</w>
▁particip ated</w>
S ec
af f</w>
▁h om
▁d eb
form▁ er</w>
▁complet ed</w>
▁s ix</w>
s ite</w>
▁F irst</w>
▁f ace</w>
&ap▁os ;s</w>
c i▁
▁ev ents</w>
▁ 00</w>
s uch</w>
ic ial</w>
om an</w>
▁a ch
c▁ es</w>
aff ic</w>
H y
▁en g
en cies</w>
e a▁r
W ▁
▁s ociety</w>
▁s eason</w>
▁fun ds</w>
st▁ em</w>
▁h ouseh
▁employ ment</w>
n am
▁On e</w>
▁Ass ociation</w>
▁o thers</w>
b ro
▁offic er</w>
th ey</w>
li er</w>
▁n ear</w>
▁s o
e▁n ts</w>
ea k</w>
▁ap pro
tiv ely</w>
o▁ ol</w>
loc ▁al</w>
rou ps</w>
i▁ ed</w>
▁l ead</w>
▁high er</w>
▁conditi ons</w>
e igh
s▁ uch</w>
▁overs eas</w>
c le</w>
▁ra ised</w>
il ar</w>
▁R us
n ext</w>
▁civ il</w>
ob er</w>
▁m ove</w>
▁sup ply</w>
▁reg ion</w>
rec e
re w</w>
com p▁
▁r ights</w>
id ence</w>
▁for m</w>
or din
el t</w>
str ▁
▁p ass
S▁ e
por ted</w>
per form
▁c all</w>
o th▁er</w>
▁rul ing</w>
d ef
w ell</w>
a▁ ti▁on</w>
frastruc ture</w>
▁trad itional</w>
ur al</w>
▁exch ange</w>
olog ical</w>
▁vic ti
C oun
▁sub mit</w>
▁H ouse</w>
angu age</w>
si ons</w>
a▁ n▁d</w>
▁m akes</w>
qu ▁
▁n ever</w>
▁bec om
▁contro l</w>
e▁ v
em ale</w>
ap pl
o es</w>
▁streng th
a▁ tio▁n</w>
ea ch</w>
ar d
th e▁re</w>
▁L et</w>
j e▁ct</w>
▁pos sibility</w>
e▁ e</w>
es n</w>
▁Fin ancial</w>
i er</w>
▁ph one</w>
▁rec ent</w>
▁ag o</w>
ag n
ot ed</w>
el ing</w>
t on</w>
ee k</w>
pl ▁e</w>
on▁ g
▁sh are</w>
w it
▁A b
ul a</w>
c r▁
▁s ize</w>
t e▁r</w>
eg u</w>
▁ex ten
▁atten ded</w>
a ud
a ther
▁activ ely</w>
J e
▁tr y</w>
der ed</w>
u▁ m
▁A pril</w>
es ting</w>
▁k in
▁exhib ition</w>
ex ual</w>
▁fri end</w>
▁f ur
▁i ▁n</w>
o i▁n
red it</w>
W ▁e</w>
▁ar res
ex p▁
▁conduc t</w>
▁dr aw
▁dec ision</w>
ti al</w>
re h
c our
J ae</w>
▁eas y</w>
i▁ c</w>
c s</w>
b ur
ati v
▁g o▁
pl ace</w>
▁wh i▁ch</w>
rec ▁
▁respon se</w>
▁wor ds</w>
it▁ ed</w>
▁eff ect</w>
▁acc ount</w>
u ment</w>
▁c al
▁ret urn</w>
d own</w>
&ap▁os; l▁l</w>
▁D ong
em▁ ent</w>
com ▁
ro ad</w>
e an
&a▁ p▁os;s</w>
us ing</w>
ul d</w>
n eg
▁eval uation</w>
▁i ▁s</w>
▁J uly</w>
▁cour se</w>
f e</w>
▁stud ent</w>
u▁ t</w>
▁accor dance</w>
▁b usin
ig ▁
▁h ospital</w>
in t▁
▁oper ating</w>
▁im p
a▁ d
&q▁u ot▁;</w>
m ental</w>
▁comp ared</w>
ver ▁
▁fun c
▁author ities</w>
▁J une</w>
▁qu esti
▁it ems</w>
▁appl ic
▁doc uments</w>
▁neg oti
▁increa sing</w>
▁Democr atic</w>
it ors</w>
▁Sup reme</w>
▁a verage</w>
in▁ to</w>
anc ed</w>
un ication</w>
▁w ar</w>
ept ember</w>
▁hou sing</w>
▁Sh in</w>
▁St ation</w>
ud e</w>
▁op position</w>
and ed</w>
o▁ me</w>
▁cooper ation</w>
u t▁
port ation</w>
▁e r
▁oper ate</w>
&apos; ▁s</w>
il ies</w>
ar▁ ge</w>
▁lea ve</w>
▁d u
m ov
el eb
i▁ ve</w>
▁cos ts</w>
a▁ s
ag ▁e</w>
A d
▁grow ing</w>
▁dec rea
e▁ a</w>
ven tion</w>
▁en ti
▁ar t</w>
ec h</w>
▁&a pos▁;s</w>
▁sign ific
▁vol unt
trib ution</w>
pl ay
p op
e▁ t
R es
ar▁ y</w>
▁prom otion</w>
▁o ▁f</w>
o h</w>
an▁ t</w>
▁E uro
▁@ -▁@</w>
▁B l
ph as
y s
▁e ffici
w a</w>
w▁ ay</w>
▁trav el</w>
U .▁
▁Hy undai</w>
e▁n ce</w>
▁pos ition</w>
▁plan ning</w>
d▁ ing</w>
▁tri al</w>
▁r ole</w>
fir st</w>
ar m</w>
o▁ se</w>
i ety</w>
r▁ e
▁r eas
▁d ust</w>
t u▁re</w>
▁elec tion</w>
ear ly</w>
▁tem per
tron ics</w>
en ding</w>
er▁ al</w>
▁s een</w>
▁r un</w>
▁e at</w>
▁st ory</w>
▁emerg ency</w>
▁hear d</w>
ic i
▁some thing</w>
es tion</w>
us ted</w>
▁sec tor</w>
▁re view</w>
a▁c k</w>
ec on
if t</w>
▁f ew</w>
uc ▁
ep end
▁r un
▁p ain
g ood</w>
for t
ct ober</w>
▁cl as
▁g en
on ▁e</w>
v ice</w>
▁ex tr
es ▁t</w>
ov e▁r
▁out side</w>
ultur ▁al</w>
▁diffic ul
T h
oun ds</w>
▁lea der</w>
th y</w>
er n</w>
▁1 st</w>
▁&apos; ▁s</w>
a g</w>
▁tr illion</w>
s▁ ec
il▁ l
i x
▁reg is
S e▁
▁reg ular</w>
s▁ es</w>
en ded</w>
a▁ p
▁inv ol
cl us
▁m inis
▁S chool</w>
c o</w>
P ark</w>
▁p us
te▁r m</w>
▁ra ther</w>
K▁or ea</w>
▁d aily</w>
p▁ ol
20▁ 1
▁j oin
u k
D is
▁b ir
▁rev ealed</w>
c al
a▁c t</w>
&▁ apo▁s
▁f estival</w>
▁adv ance</w>
▁bel ieve</w>
▁im medi
▁cl ose</w>
▁d eg
▁Y oon</w>
ou r▁
us tr
is is</w>
▁N o</w>
▁includ e</w>
▁intro duced</w>
if ic</w>
oun tain</w>
quart ers</w>
ma▁ de</w>
ff airs</w>
p eople</w>
b all</w>
▁str uc
dis ▁
▁u su
▁prepar ed</w>
▁Tr ans
▁politi cal</w>
en▁ cy</w>
▁l ower</w>
s en
eb ru
▁dis p
f e▁
▁as k</w>
ish ing</w>
a▁ use</w>
ap p▁
U.▁ S.</w>
s▁ he</w>
▁m ess
s▁ aid</w>
ar r
in crea
wor k
i o▁ns</w>
pos al</w>
l ar
2 nd</w>
u▁ p</w>
▁meth od</w>
ug ust</w>
g overnme▁nt</w>
P ar▁ty</w>
▁res pec
▁g roups</w>
▁j obs</w>
▁establish ment</w>
▁dis ab
rel ▁
▁w age</w>
i j
▁M any</w>
▁wr itten</w>
herein after</w>
pl es</w>
ev▁ el</w>
▁curr ently</w>
og rap
h n</w>
▁purch ase</w>
▁pol icies</w>
ec tive</w>
c ap
▁sh ows</w>
▁l egal</w>
▁d en
Pa▁r k</w>
▁B ank</w>
g▁ et</w>
▁l eg
▁med ium</w>
▁d ro
l aw
spec ially</w>
▁cont ents</w>
▁aud it</w>
ef ul</w>
d on
▁spec ial
j o▁
▁t old</w>
▁th a▁t</w>
▁k ey</w>
▁need ed</w>
▁id enti
ou▁ th</w>
▁D ae</w>
▁t omorrow</w>
▁1 2
▁c ities</w>
ev▁ en</w>
enc ed</w>
compan i▁es</w>
in ing</w>
▁develop ed</w>
d ro
anu ary</w>
l iv
▁s old</w>
pl ement</w>
ex pl
th eir</w>
▁opin ions</w>
▁Pr ime</w>
ir ect</w>
ed ge</w>
e el</w>
op ping</w>
o .</w>
▁ ation</w>
ye a▁r</w>
▁f av
u ture</w>
▁deliber ation</w>
▁s ugg
op s</w>
n um
h eld</w>
▁bel iev
ow l
n▁ ow</w>
▁m en</w>
▁4 0</w>
▁need s</w>
inc l▁
ail able</w>
▁loo king</w>
g re
▁crea ted</w>
▁an sw
tif ul</w>
a i▁n
ell ing</w>
▁poin ts</w>
▁vehic le</w>
▁indus trial</w>
ch airm▁an</w>
▁fil m</w>
en ti▁
▁Gang won</w>
t al
▁stat us</w>
m any</w>
con c
▁f arm
. 3</w>
ot t
▁L and</w>
ti▁ ons</w>
. 2</w>
or t
▁equ ipment</w>
▁sever al</w>
▁re port
▁prof essi
▁cl aim
▁par ties</w>
on ly</w>
iqu e</w>
a▁ m</w>
▁m anufactur
▁chang es</w>
k n
etw e▁en</w>
▁concer ning</w>
3 rd</w>
▁us ers</w>
s y</w>
▁R ec
▁Tr ade</w>
▁administr ation</w>
ch e▁on</w>
▁en ough</w>
at▁ ic</w>
▁opin ion</w>
▁en ergy</w>
▁r ise</w>
in▁ gs</w>
▁P ublic</w>
gr ic
▁1 3</w>
▁Ch ung
a▁n g
▁s ports</w>
▁cl ear</w>
▁beg in
▁happ y</w>
C i▁ty</w>
▁design ated</w>
▁k ind</w>
▁S ung</w>
ar ant
wh en</w>
▁on line</w>
▁sim ilar</w>
▁iss ues</w>
con ven
▁t▁ o</w>
or ry</w>
fac il
▁t akes</w>
b us
a▁ ys</w>
ar ter</w>
ol o▁
for cement</w>
ann ed</w>
c ul
ick ly</w>
▁pres ent</w>
h ea
m ar
t▁ ing</w>
▁includ ed</w>
u▁ d
un der
▁pres s</w>
▁cont ent</w>
▁ill egal</w>
▁A gency</w>
rea m</w>
▁A nd</w>
in c▁
e un</w>
um e</w>
ch ang
▁c am
ro om</w>
▁t arg
▁s even</w>
▁en ter</w>
au ght</w>
i very</w>
▁l ost</w>
▁f inis
▁sus pec
▁exper i
sup po▁rt</w>
▁l anguage</w>
Kore▁ a</w>
t w
▁comm issi
i▁ r
▁reg ulations</w>
▁prin ci
▁phot o</w>
▁open ed</w>
. 6</w>
g round</w>
ae j
▁t as
ol ds</w>
▁V iet
a▁ le</w>
d ings</w>
s ang
iv ely</w>
▁St ate</w>
t ee</w>
n er
g n
ent ers</w>
ou▁ l</w>
sti m
▁un iversity</w>
l ife</w>
▁pl aces</w>
▁dis trict</w>
▁S eptember</w>
▁natur al</w>
y ears</w>
ti on
tern oon</w>
is ions</w>
g overn
b ers</w>
ab il
en d▁
▁o il</w>
▁pas sed</w>
▁m om
mon th</w>
ester day</w>
▁recor d</w>
▁Dep artment</w>
▁det ails</w>
f un
▁A sian</w>
t▁ ly</w>
l ow</w>
▁L iber
oo k
ucl ear</w>
▁ter ms</w>
▁m et
I ▁
wh i▁le</w>
▁rec ru
▁exp and</w>
e▁ ty</w>
▁pic ture</w>
▁typ e</w>
▁g etting</w>
o▁ nd</w>
d on▁g</w>
▁par ts</w>
▁busin esses</w>
▁H an</w>
▁contro versy</w>
e ering</w>
▁an im
▁P h
▁govern ments</w>
j ust</w>
&a▁po▁s ;t</w>
▁ch ief</w>
u▁ se</w>
s k
▁t ow
tr ic</w>
▁cons ult
t▁ ime</w>
▁progr ams</w>
tur al</w>
h s</w>
m i▁n
▁underst and</w>
s er
l▁ ike</w>
▁t w
▁re duce</w>
▁1 3
▁manag er</w>
▁inter ested</w>
b▁ e
▁d eath</w>
v ari
▁s ett
m a▁r
▁buil t</w>
▁ret ur
▁Y ang</w>
▁J i</w>
▁iss ued</w>
▁consid ered</w>
▁sc ene</w>
p▁ ar
▁r ice</w>
▁contin ued</w>
i▁ m</w>
G ye
▁ac tive</w>
▁D uring</w>
▁f ee</w>
e▁ se</w>
as tic</w>
▁e duc
ain▁ st</w>
▁su ffer
orpor ation</w>
▁g ave</w>
▁determ ined</w>
▁Intern et</w>
▁ et</w>
y le</w>
l ong</w>
en ed</w>
▁d on
▁G od</w>
an tly</w>
. 1</w>
ov ember</w>
g ener
&apo▁s ;</w>
p ite</w>
wh ere</w>
g l
c ▁e</w>
▁sus pen
enc ▁e</w>
▁d evel
▁in side</w>
f u▁
▁sen ior</w>
▁com b
ow▁ er</w>
f ro▁m</w>
▁prescri bed</w>
irec tor</w>
at▁ es</w>
▁s ea
our th</w>
od e</w>
▁m et</w>
▁tri p</w>
et ary</w>
▁h y
▁Ad ministration</w>
i▁ ly</w>
an▁ ge</w>
▁f all</w>
s al
▁O ctober</w>
i ent</w>
eti tion</w>
at e▁d</w>
. 4</w>
▁E conom
▁tr affic</w>
l ev▁el</w>
est ablis
o ot
p as
▁Hy un</w>
J ung</w>
c a▁n</w>
▁w oman</w>
oc ks</w>
▁g oods</w>
▁Elec tronics</w>
&▁a pos;s</w>
an▁ g
▁201 6</w>
j ong</w>
an ch</w>
▁s aw</w>
onal d</w>
▁tea ms</w>
▁st aff</w>
pl ay</w>
N orth</w>
▁l ight</w>
tu ally</w>
▁sp read</w>
▁2 nd</w>
▁f emale</w>
or ed</w>
a em
▁de emed</w>
e ight</w>
ea▁ r</w>
t eam</w>
ell ent</w>
ad s</w>
▁b us
istr i▁ct</w>
▁sched ule</w>
di ff▁
a▁ e</w>
ad ministr
p t</w>
▁C l
▁wee k
um st
di ffic
. 8</w>
▁contin u
sc ri
9 th</w>
▁&qu ▁ot▁;</w>
in st
▁inten ds</w>
t in▁g</w>
▁est ate</w>
▁st ation</w>
▁av ailable</w>
om ic</w>
A n
▁1 6</w>
▁b ack
▁M anag
▁person nel</w>
gover ▁n
▁M us
incl▁ ud
▁Wh y</w>
ebru ary</w>
con sid
▁ac qu
▁charac ter
en sive</w>
der ly</w>
▁l ack</w>
▁devel op</w>
▁M r.</w>
▁fam ous</w>
▁be h
s ucc
▁institu tion</w>
b etwe▁en</w>
▁t ick
▁hea d
▁eas ily</w>
▁ch airperson</w>
▁du ties</w>
is tics</w>
▁l ec
p▁ ublic</w>
▁hea t</w>
▁con fl
▁P er
▁improv ement</w>
▁A ffairs</w>
tiv es</w>
d o▁ng</w>
T▁ he</w>
▁al one</w>
&a▁ pos;</w>
▁larg est</w>
▁l ist</w>
c urr
vi ew
art ph
bas ▁ed</w>
G over
▁s ou
▁w anted</w>
▁sum mer</w>
▁compl ex</w>
ti t
r en
y▁ ear</w>
pr is
0 0
▁v ac
p ar▁
▁b ig
u tiful</w>
▁W a</w>
▁g ather
U .S.</w>
▁pati ents</w>
▁J anuary</w>
▁m ight</w>
▁B e
al l▁
s iz▁ed</w>
▁comm er
▁ind ic
▁immedi ately</w>
at ch</w>
wi▁ t▁h</w>
ear ing</w>
▁infl u
▁F estival</w>
com m▁
▁stand ard</w>
▁par king</w>
▁Da egu</w>
▁201 8</w>
in ter</w>
▁S pec
▁c old</w>
os ▁
mos ph
d ays</w>
▁h and</w>
is ted</w>
▁p .m.</w>
ot te</w>
G wang
▁A ugust</w>
g▁ h
▁mat ch</w>
k no▁
em entary</w>
▁trans portation</w>
▁requ ired</w>
g▁ h</w>
av ▁
an▁ s</w>
▁j ud
▁th ing</w>
busin e▁ss</w>
▁h on
D istri▁ct</w>
s ay
h y</w>
i f▁
rea n</w>
▁do esn</w>
▁d oll
ti▁ es</w>
s ome</w>
▁v illage</w>
res ent
p u▁
▁us er</w>
▁proper ty</w>
▁m obile</w>
▁stand ards</w>
st ar
▁individ ual</w>
▁sub mitted</w>
n▁ or</w>
▁go al</w>
▁ad ver
ic on
▁pro g
▁fur ther</w>
com ▁p
. 7</w>
▁car ried</w>
a x
b us▁
▁vehic les</w>
▁requ ir
e▁ m</w>
erv ation</w>
a▁ in</w>
▁e stim
▁in j
▁g ir
▁$ $</w>
inc i▁al</w>
▁min imum</w>
ur s</w>
s ign
,0 ▁00</w>
o ff▁
▁do ing</w>
ab ly</w>
▁A ll</w>
ins ula</w>
w o▁
h er
▁oper ated</w>
▁lear n</w>
▁fu nd</w>
te▁ am</w>
▁Se ung</w>
▁tal k</w>
▁n etw
▁questi ons</w>
▁approv al</w>
vis ▁
▁ex ample</w>
th ly</w>
a▁r t</w>
p▁ or
b er
pro sec
o▁ c
▁sing le</w>
▁r ap
▁S ing
▁Prov incial</w>
▁C EO</w>
ow i▁ng</w>
▁w it▁h</w>
▁aut om
f il
▁ag ric
▁M ed
▁A ir
w ide</w>
▁fam ilies</w>
art ments</w>
▁en d
▁trans fer</w>
▁l ives</w>
▁expres sed</w>
s s▁
ag re
f y</w>
▁G u
at s</w>
▁f elt</w>
▁Th ese</w>
h▁ in</w>
ear▁ ch</w>
▁b ill</w>
▁proc ed
ab out</w>
▁lea ding</w>
h el
▁mod el</w>
▁comp ens
il d</w>
mor ▁e</w>
▁Pro f
&a▁pos;▁ d</w>
▁cont act</w>
k y
Ch ina</w>
p o▁l
li▁ ke</w>
▁1 4</w>
hi▁ gh</w>
oo▁ k</w>
Ko▁ rean</w>
▁bel ow</w>
▁P en
▁C urr
▁201 7</w>
E duc
▁restaur ant</w>
▁L abor</w>
ati▁ onal</w>
ac t▁
▁appoin ted</w>
▁car s</w>
▁ur ban</w>
▁execu tive</w>
▁ag encies</w>
▁rel ation
m arket</w>
U ▁
▁y et</w>
▁rece iving</w>
ong er</w>
ell ig
▁s ent
ul ate</w>
cont in
▁Dec ember</w>
▁str ateg
5 ▁
▁D ef
o ds</w>
S u
si b▁
▁Y oo</w>
▁wh ole</w>
▁cr isis</w>
▁analy sis</w>
o ke</w>
▁h o</w>
▁19 9
y i▁ng</w>
on d
b r▁
▁ref lec
▁pers onal</w>
pr ec
▁c redit</w>
p riv
▁consid ering</w>
▁p oor</w>
&ap▁os; ve</w>
ef o▁re</w>
in to</w>
l ea▁
▁s t▁
▁ha p
▁1 8</w>
ou l▁d</w>
▁im plement</w>
▁T V</w>
▁J ang</w>
ur y</w>
▁m other</w>
▁lo an</w>
▁& a▁
▁b ank</w>
▁C orporation</w>
▁y outh</w>
▁all eg
▁wor k
▁star ting</w>
c▁ il</w>
▁sh ip
▁sec retary</w>
▁ap artment</w>
l eg
▁ch o
▁O h</w>
an▁ y</w>
▁consum ers</w>
▁S ong</w>
m▁ ay</w>
▁J ustice</w>
us ▁ed</w>
ul ed</w>
▁temper ature</w>
▁h it</w>
ul es</w>
Prov ince</w>
i▁g n</w>
a x</w>
▁V ice</w>
o▁ u
d u▁
k et</w>
▁boo ks</w>
▁b ad</w>
oo t</w>
be i▁ng</w>
▁c entral</w>
f a▁
ig r
▁&▁ amp;</w>
▁S tr
▁em phas
▁1 ,
▁man age</w>
▁h e▁
wo▁r k</w>
c os
▁ac tual</w>
▁orig inal</w>
eed ed</w>
▁coll ege</w>
▁K yung</w>
▁J in</w>
o ts</w>
i▁n ce</w>
D ec
▁g ames</w>
▁ch airman</w>
▁B y</w>
e▁ ss
et ed</w>
tr▁ y</w>
h▁ o</w>
▁opport unity</w>
▁U .
▁T echn
&ap▁os; re</w>
▁v en
p ay
ong s</w>
em en▁t</w>
▁ac tion</w>
▁M on
p ublic</w>
ic ▁es</w>
you▁ ng</w>
pr i▁
d uri▁ng</w>
▁Kor eans</w>
▁e y
▁ind epend
▁u til
y er</w>
▁bea utiful</w>
▁cer tific
l der</w>
or ing</w>
the▁ y</w>
F in
▁del ivery</w>
▁a ▁
▁2 5</w>
▁d one</w>
e▁n t
. 9</w>
▁I r
▁r e▁
qu al
h ol
li k
▁M ot
coun t</w>
ti on▁s</w>
a o</w>
si▁ te</w>
▁a head</w>
▁F rom</w>
▁charg es</w>
tribu ted</w>
ta▁ ke</w>
▁in nov
▁high est</w>
I n</w>
▁qu ickly</w>
▁ar ti
an d▁
a ult</w>
▁con ference</w>
▁re duced</w>
▁J eong</w>
m▁ it</w>
S am
▁dis aster</w>
ol l▁
▁un ion</w>
eal s</w>
▁commissi oned</w>
▁cap ital</w>
ent ing</w>
▁cer tain</w>
4 ▁
▁or dered</w>
▁Liber ty</w>
eleb r
▁th ere
▁f ell</w>
af t</w>
s▁ tr
m us
&ap▁os ;</w>
▁sk in</w>
oun▁ g</w>
▁A t
h im</w>
▁reg arding</w>
pos sible</w>
m on▁
▁c amp
i▁c y</w>
et c</w>
▁com es</w>
▁del iver
por ting</w>
ut ors</w>
u g</w>
d h
▁professi onal</w>
m ade</w>
▁w aste</w>
in tro
tim ▁e</w>
P r▁
▁exam ination</w>
r ight</w>
s ang</w>
mosph ere</w>
▁s ong</w>
▁H wang</w>
▁H ealth</w>
▁s anc
ec t▁ed</w>
▁eff orts</w>
▁stor es</w>
▁f alling</w>
clud ed</w>
a j
ar ies</w>
▁f re
ri ve</w>
o ch
▁tri ed</w>
ye a▁rs</w>
ib er▁
d▁ r
▁g overnor</w>
ea t
▁bur den</w>
m i▁
f▁ rom</w>
Or din
▁F ebruary</w>
▁conc entr
▁Gang nam</w>
y ong
augh ter</w>
▁dis t
▁N ovember</w>
re▁ c
▁tr end</w>
▁com ing</w>
▁p r▁
▁cr ime</w>
▁A re</w>
u▁ ch</w>
e▁ ment</w>
o▁r t</w>
▁h ot</w>
▁Trans port</w>
▁D onald</w>
s in▁ce</w>
▁ab o▁ut</w>
our n
▁y esterday</w>
▁usu ally</w>
▁ra ise</w>
i▁ de</w>
is ten
▁succ ess
▁produc ed</w>
▁ris k</w>
sy st▁em</w>
ec▁ ts</w>
▁implem entation</w>
▁ar riv
▁P eople</w>
▁gu id
▁doc ument</w>
b s</w>
C O</w>
▁wh▁ ich</w>
▁sc re
▁driv ing</w>
▁col or</w>
▁in f
re present
▁occ urred</w>
u ter</w>
g ing</w>
erm any</w>
▁s pr
wi▁ th
s e▁r
▁investig ating</w>
s ts</w>
▁b ri
our ce</w>
it able</w>
gr ad
ent▁ ly</w>
ac ks</w>
▁r en
▁ch urch</w>
over ed</w>
▁m ind</w>
u▁ m</w>
o f▁f
ff i▁ce</w>
e p▁
▁Curr ently</w>
sec o▁nd</w>
▁s ee
▁exc ellent</w>
sh o▁
▁p resid
▁ad d
i▁n a</w>
C ity</w>
▁I sland</w>
il l▁
▁wea ther</w>
sel ves</w>
▁h eal
▁comm on</w>
he▁ l
▁inst alled</w>
▁S m
id ▁ed</w>
ur is
Ko▁ rea</w>
&ap▁os; ▁
▁concer ns</w>
▁reas ons</w>
▁h os
esti g▁
▁Se o</w>
▁requ ested</w>
▁perform ances</w>
d e▁r</w>
▁6 0</w>
co▁m p
ov ed</w>
be▁c a▁use</w>
▁un ivers
▁201 5</w>
por ▁t</w>
or thern</w>
▁prescri be</w>
▁h er
cor por
▁w i▁ll</w>
v ol
▁concer t</w>
▁qu estion</w>
▁s pen
u▁ al</w>
ativ ely</w>
▁sum mit</w>
f l▁
▁r ound</w>
▁Ch ung</w>
th▁ em</w>
tr ad
st anding</w>
is l
▁wat ch</w>
▁d ou
▁Ch eong
in s</w>
eo▁ ple</w>
s ue</w>
D emocr
tr a▁
▁s ▁
▁broad cas
up s</w>
▁mat ter</w>
oc i▁al</w>
▁super vis
ma▁ ke</w>
i▁ ef</w>
in ary</w>
▁&apo▁s ;s</w>
m er
P reside▁nt</w>
▁n uclear</w>
▁lear ning</w>
&a pos▁;</w>
▁M in</w>
▁w eb
pro t
pl ex</w>
▁l if
▁s yst
▁ach iev
wh▁ ich</w>
▁law mak
i k</w>
en viron
e f▁
ay▁ or</w>
li am
i▁s h</w>
an ch
t em
as h</w>
▁sub par
em b▁
▁T ae</w>
▁S ang</w>
dr aw
&▁ q▁uot;</w>
d om
&▁a p▁os
▁Y eong
m ee
▁hap pen
sh ar
ec▁ ted</w>
▁f requ
▁reg ional</w>
w r
et e</w>
▁h otel</w>
r▁ ec
&ap▁os; ll</w>
▁Reg arding</w>
au th
t ations</w>
t▁ ic
▁t im
i h
▁ex erc
el▁ y</w>
er a</w>
▁tr ue</w>
an▁ ts</w>
▁dram a</w>
▁comm unication</w>
un ities</w>
e th▁er</w>
e ign
▁Th ank</w>
on str
iti e▁s</w>
th i▁s</w>
▁s ession</w>
a▁ ble</w>
▁lea ders</w>
▁hear t</w>
ibr ary</w>
S up
▁wor th</w>
▁pres sure</w>
▁h all</w>
tr ess</w>
u ge</w>
i en▁ce</w>
app oin
D a
is on</w>
g re▁
ai▁r s</w>
a ut
v al
th e▁r</w>
▁ac adem
il ed</w>
▁sit es</w>
▁imp act</w>
thr▁ ee</w>
olo▁ gy</w>
Comm itt▁ee</w>
um an</w>
duc ing</w>
B S</w>
▁entr ance</w>
▁br and</w>
▁tr ying</w>
▁L otte</w>
j ob</w>
b rea
▁circ umst
ea▁ ch</w>
ae k
▁br ing</w>
igh▁ t</w>
ec o▁n
ab or
▁cri tici
tr i▁al</w>
d ue</w>
▁w id
ic ally</w>
e▁ st
▁deg rees</w>
j▁ in</w>
g▁ ed</w>
T V</w>
manag eme▁nt</w>
▁go▁ ing</w>
in stitu
d▁ id</w>
w▁ or
In dus
▁st op</w>
ul▁ ar</w>
B C</w>
▁3 rd</w>
▁c aught</w>
▁adv ant
u i</w>
s i</w>
direc t▁or</w>
4 0</w>
s▁ p
▁m o
a▁ ri
t▁ ri
▁in ter</w>
iv ▁e</w>
&▁a pos;
v ic
at t▁
▁f ig
▁ser ies</w>
cl u▁
o in▁
i e▁
announ c▁ed</w>
▁s ense</w>
icon duc
▁s ea</w>
▁coun cil</w>
t i</w>
pro m
▁d own
i on▁s</w>
h ea▁
In tern
▁hea vy</w>
▁foll owed</w>
ell s</w>
▁c enters</w>
m ake</w>
▁& q▁u
i▁ or</w>
S ou▁th</w>
▁wr iting</w>
▁sup pl
▁organiz ed</w>
ye▁ ong
ult i</w>
▁mark ets</w>
oth es</w>
▁p un
▁m etropolitan</w>
gr o▁
▁Al so</w>
s▁ oo</w>
am ▁e</w>
▁th e▁re</w>
st and
n e
▁atten d</w>
▁Def ense</w>
s et</w>
d oc
N at▁ional</w>
ut or</w>
i▁ f</w>
t ation</w>
r i</w>
i p▁
▁L ocal</w>
▁2 4</w>
▁ann ual</w>
M anag
▁r ead</w>
▁predic ted</w>
▁inter pre
j i</w>
O S
▁s exual</w>
▁win ter</w>
m emb▁er</w>
▁el ig
wh at</w>
h ing</w>
dic tion</w>
oh n</w>
▁M ost</w>
s em
inten dent</w>
Ordin an▁ce</w>
▁ar gu
ess ing</w>
▁sh owing</w>
▁m as
▁bo ard</w>
▁af ternoon</w>
▁acc idents</w>
pr ises</w>
▁cou ldn</w>
el ds</w>
d in▁g</w>
▁relation ship</w>
t ained</w>
P ro▁
e▁n s</w>
▁victi ms</w>
▁ey es</w>
▁m emor
▁e ight</w>
Un iver
▁intro duce</w>
▁re duction</w>
ear by</w>
▁K ong</w>
c u▁
▁s ays</w>
▁corpor ate</w>
h os
ev al
▁Manag ement</w>
▁r ain</w>
▁de pos
▁Y ong
▁Ch airperson</w>
sh▁ ip</w>
a▁ ir
▁for ward</w>
▁N am</w>
ar ily</w>
▁r ates</w>
wor ld</w>
f ace</w>
▁benef its</w>
p resid
k ▁ed</w>
▁F und</w>
k▁ ing</w>
d ec▁
▁it self</w>
onom y</w>
▁n ation</w>
it▁ s</w>
▁n orm
e or
ab les</w>
▁R e
▁In frastructure</w>
me ans</w>
e▁ ar</w>
▁struc ture</w>
▁prot ection</w>
▁en cour
▁enter ed</w>
▁Prof essor</w>
rou▁ nd</w>
ou▁ se</w>
iti ons</w>
▁p or
▁ow ner</w>
▁eval u
aus ▁e</w>
▁f ile</w>
▁N am
x t</w>
evelop ment</w>
U S</w>
▁ph ys
▁d uty</w>
tis ts</w>
por ▁ts</w>
inv est
ur ▁es</w>
k en</w>
ener al</w>
ar ded</w>
▁begin ning</w>
▁Rus sia</w>
n ec
▁Dis trict</w>
▁laun ched</w>
▁el derly</w>
t ake</w>
e o▁n</w>
▁t aste</w>
▁f ather</w>
v e
h i▁s</w>
▁play ed</w>
Prov inc▁e</w>
▁high ly</w>
su▁ r
a ul
▁w in</w>
▁compl ain
▁coll ection</w>
c ast</w>
▁c ur
sch o▁ol</w>
▁mom ent</w>
▁im age</w>
▁dis tribution</w>
tr o▁
m in</w>
it▁ ion</w>
is ter</w>
ar t▁
T h▁e</w>
&ap▁os▁ ;
▁particip ants</w>
▁l ow
▁foc us</w>
ul ated</w>
et ings</w>
e i</w>
▁sus pic
▁m er
▁buil d</w>
▁Se ong
ular ity</w>
t oo</w>
▁particip ation</w>
▁D es
oi▁n t</w>
er ies</w>
ea▁ n</w>
▁comp reh
▁D irector</w>
im prov
▁hol ding</w>
m uch</w>
a▁ d</w>
▁res t</w>
▁dis c
▁bl ood</w>
▁H igh</w>
▁mess age</w>
▁kin derg
▁differ ence</w>
si▁ de</w>
▁vi ew</w>
▁Rep resent
▁fil ed</w>
om▁ ic</w>
▁ad vis
in d▁
▁notif y</w>
▁m en
▁hou ses</w>
s ystem</w>
▁educ ational</w>
▁beh ind</w>
vari o▁us</w>
ter ▁
M in▁
F or
s er▁
▁v ice</w>
▁1 7</w>
tur ▁e</w>
o in</w>
uclear ization</w>
▁int egr
▁b ase</w>
m in▁
m es</w>
in tern
ar▁ d</w>
▁h our</w>
b l▁
ap pro
ans ion</w>
f ully</w>
f ood</w>
eti c</w>
l ement</w>
▁res ources</w>
▁In v
▁c ut</w>
▁inter view</w>
k ey</w>
f in▁
ed eration</w>
tiv eness</w>
s ame</w>
▁Ch eong</w>
ti▁ n
istr ation</w>
▁tea cher</w>
▁repor ts</w>
▁custom er</w>
l san</w>
w ou▁ld</w>
n on</w>
a▁ fter</w>
▁vis itors</w>
▁var iety</w>
▁av o
▁entr usted</w>
me▁ m
wh ile</w>
ivers ary</w>
a f▁
▁sal e</w>
▁s n
▁sh opping</w>
▁sanc tions</w>
▁pop ulation</w>
▁L ea
▁wh ose</w>
▁cl ub</w>
▁Spec ial</w>
▁Sec retary</w>
os eon</w>
in ▁e</w>
▁gu arant
▁at mosphere</w>
▁Com p
oo king</w>
an e</w>
▁G r
h ous
▁g row</w>
sp▁ ec
ag ain▁st</w>
▁th em
s om
▁G ermany</w>
t▁h eir</w>
bec au▁se</w>
▁trans ac
▁S un
▁dis ease</w>
owl edge</w>
▁pos itive</w>
▁ear lier</w>
l i▁ne</w>
b ass
▁wr ong</w>
ea ter</w>
▁Americ an</w>
g le</w>
tic ism</w>
tain ment</w>
e▁r n</w>
▁sm artph
comp eti
S▁e oul</w>
▁indus tries</w>
▁accoun ting</w>
ul l
inv estig▁
▁r e</w>
oo▁ d</w>
▁w ays</w>
ec ting</w>
igh t
e i▁
S erv
▁real ity</w>
▁t en
▁d irect</w>
r▁ ea
▁spec ific</w>
sc a▁le</w>
n▁ am</w>
u▁l t</w>
eo pl▁e</w>
▁inc ident</w>
j us
c ally</w>
ar b
& amp;</w>
qu are</w>
en▁ se</w>
b and</w>
Ar tic▁
ou gh
▁rece ip
▁enj oy
t our
▁F ac
n ey</w>
1 0
▁4 th</w>
i▁ ze</w>
▁lim ited</w>
ver s</w>
b ack</w>
▁f ailed</w>
g row
I n▁
K i▁m</w>
su▁ ng</w>
1 5</w>
▁enti re</w>
expec t▁ed</w>
neg oti
i en
ar ea</w>
▁p i
▁Viet nam</w>
ub ▁
ur t</w>
▁particip ating</w>
▁p aper</w>
▁m ut
▁Y ork</w>
▁ ing</w>
D ep
▁rea ding</w>
ivers i▁ty</w>
▁wh ite</w>
it ation</w>
con struc
▁% %</w>
t op</w>
sh all</w>
▁r ed</w>
▁p ost</w>
▁1 8
A▁ ct</w>
▁stat ement</w>
o e</w>
▁st ay</w>
or d</w>
e▁ y</w>
e um
c ase</w>
▁g reen</w>
id ge</w>
eh ol
▁inst all
▁Ch ief</w>
▁wor ked</w>
▁h ands</w>
▁d est
l obal</w>
agrap hs</w>
res i▁d
a por
▁vi ew
▁prov isions</w>
ow▁ ed</w>
▁Pro sec
rea▁ se</w>
▁m ach
▁C ulture</w>
m illi▁on</w>
▁univers ities</w>
▁agre ed</w>
▁L ast</w>
ust ment</w>
at▁ er</w>
▁S on</w>
▁p oll
▁w al
end a</w>
l aw</w>
ae k</w>
▁s ud
memb e▁rs</w>
▁a im
▁A hn</w>
m a▁ny</w>
▁For eign</w>
o ffici
▁direc tion</w>
rea t</w>
ing ly</w>
▁O ur</w>
t est</w>
▁or din
M oon</w>
rea l</w>
J ong</w>
h▁ ow</w>
▁inst ead</w>
▁analy zed</w>
▁sol ve</w>
d a▁y</w>
cal l▁ed</w>
1 8</w>
su p▁
iv e▁r
ar▁ ea</w>
▁tour ists</w>
▁re ven
▁m ul
ol▁ d</w>
▁s ymp
▁s cor
▁househ olds</w>
pres ▁
b el
▁s ell</w>
▁g round</w>
di ffer
▁rel ease</w>
pr▁ ov
▁p o
ye▁ on</w>
rou gh
h ere</w>
el ed</w>
f uture</w>
▁A sia</w>
ne▁ xt</w>
▁sim ple</w>
re t</w>
20 1▁
pri ate</w>
l▁ th</w>
▁lo ans</w>
su▁ p
e▁ l</w>
Par t▁y</w>
▁ac ross</w>
k ay</w>
▁some one</w>
in form
ch ain</w>
▁Y ong</w>
so▁ o</w>
▁v ir
▁per form</w>
sec ▁
▁sched uled</w>
▁b anks</w>
tern al</w>
iz es</w>
Minis t▁ry</w>
▁los s</w>
G ye▁ong
▁tr ain</w>
w s</w>
p▁ r
▁pos ted</w>
▁div ision</w>
▁tea chers</w>
▁b ought</w>
y ers</w>
for▁ m
el imin
1 00</w>
l▁ es</w>
▁pr em
p ubl
▁r ati
▁elig ible</w>
d ev
▁all ow</w>
f▁ o▁r</w>
1 3
▁driv er</w>
▁Rec ently</w>
A r▁
d riv
▁f ully</w>
mee ti▁ng</w>
am ed</w>
s ity</w>
m▁ in</w>
k now</w>
iber▁ ty</w>
▁mov ement</w>
C ent▁er</w>
▁difficul ties</w>
l im
▁Sec urity</w>
d o
P ol
▁m enti
y cle</w>
u ▁e</w>
pl a▁ce</w>
fi▁ r
s y▁
it▁ ies</w>
▁pl ant</w>
▁di ed</w>
▁S afety</w>
ow ers</w>
anc i▁al</w>
Com m▁
▁coun sel
por ▁
h ist
0 0,000</w>
▁d eal</w>
▁J in
sti tu▁
s a</w>
▁M ore</w>
▁&a p▁os
th▁ rough</w>
▁pr ec
▁hear ing</w>
▁l iv
▁St ud
▁w ▁
p ower</w>
er ve</w>
▁p ot
▁environ mental</w>
▁cl othes</w>
▁Res earch</w>
▁fav or
m p
e▁ ar
enti▁ al</w>
6 ▁
▁new ly</w>
▁negoti ations</w>
▁compens ation</w>
S t▁
▁el ementary</w>
we▁ ll</w>
▁tem por
▁e specially</w>
▁1 9</w>
o ff</w>
▁tur ned</w>
▁i r
▁agric ultural</w>
In che▁on</w>
▁s atis
▁N ow</w>
2 5</w>
▁str essed</w>
▁pass eng
2▁ 0
▁n ation
▁Je oll
▁ y</w>
w a▁
t oc
ip p
▁re form</w>
ou▁ gh</w>
▁O f</w>
sp e▁
ci pl
am o▁ng</w>
▁sp eed</w>
▁exc ept</w>
▁co ff
s c▁
ill ing</w>
ain i▁ng</w>
▁l un
g ery</w>
▁res tric
▁F oundation</w>
d oor</w>
▁ser ious</w>
▁p m</w>
he▁l p</w>
g▁h t</w>
▁foll ow</w>
▁ch ance</w>
re▁ g
dis tr
c i▁ty</w>
▁C ould</w>
clud ing</w>
id ly</w>
uc k</w>
eb ook</w>
I ▁n
▁in iti
▁deliver ed</w>
h ome</w>
▁strength en</w>
▁recomm ended</w>
i▁ te</w>
an ad
▁loo ks</w>
trib ute</w>
ent▁ al</w>
S .
Democr at▁ic</w>
▁E ar
ear ance</w>
▁str eet</w>
▁Indus trial</w>
ag ing</w>
es▁ s
con f
coun ▁
a im</w>
▁pl at
a b</w>
▁sec ure</w>
l a▁r
an c▁
▁ev idence</w>
c ity</w>
pre v
is i▁on</w>
ea v
▁pre vention</w>
▁occ up
▁en sure</w>
re▁ s
g en</w>
▁sh own</w>
▁20 th</w>
p▁ ort</w>
▁s om
▁K ing</w>
1 2</w>
▁th eme</w>
▁invol ved</w>
▁im m
▁ann iversary</w>
▁W elfare</w>
▁d ig
f▁ l
i ation</w>
b u</w>
&a▁pos;▁ m</w>
▁gather ed</w>
▁C ultural</w>
don es
ul ting</w>
▁w ish</w>
▁w ife</w>
▁n eigh
er i▁ng</w>
▁t it
▁n ature</w>
ustr al
D ong</w>
ter y</w>
spec i▁al</w>
ou▁r t</w>
b ir
as ▁t</w>
▁re ti
▁a .m.</w>
▁Ab out</w>
▁st ep</w>
▁For mer</w>
▁un f
▁mater ial</w>
▁exch ang
▁H all</w>
u x
er t</w>
▁o ffer
▁netw ork</w>
▁1 0th</w>
as n</w>
aej eon</w>
▁bl ack</w>
f▁ ul</w>
▁recor ds</w>
▁implem ented</w>
▁candid ate</w>
l ymp
▁th▁ at</w>
▁par k</w>
a w▁
econ om▁ic</w>
r o</w>
ic an</w>
f▁ irst</w>
an▁ d
▁g as</w>
th ea
▁p ain</w>
mark ▁et</w>
&ap▁os; v▁e</w>
▁hol iday</w>
▁determ ine</w>
▁ac t</w>
▁vis iting</w>
o▁ un
it▁ al</w>
ir e▁c
c e▁n
▁D on</w>
n ation▁al</w>
im plem
▁go es</w>
en▁ d
▁w on
▁eff ects</w>
▁add ress</w>
eas es</w>
co▁ un
Minis t▁er</w>
6 0</w>
▁mov ed</w>
▁In di
o▁ m</w>
in ner</w>
▁b ar
▁air port</w>
▁En viron
▁G eneral</w>
y oung</w>
n▁ ing</w>
it ted</w>
▁sk ills</w>
▁e ss
▁con dition</w>
I f</w>
▁Su per
▁2 00</w>
ur ities</w>
id s</w>
▁for ce</w>
▁becom es</w>
pl om
im self</w>
b eg
▁big gest</w>
▁L G</w>
pro bl
▁ra ising</w>
▁complet e</w>
t ent</w>
▁separ ate</w>
e o▁ng</w>
co▁ me</w>
▁gener ation</w>
▁D evelopment</w>
A▁ r
h om
er i
an a</w>
▁wh ic▁h</w>
▁tax i</w>
▁s ound</w>
▁b al
b▁ ec
▁in s
▁certific ate</w>
i▁ ci
▁d ream</w>
t oday</w>
ro w▁
▁qu arter</w>
▁n earby</w>
m ain
▁re plac
s e▁c
ea ted</w>
▁conven ience</w>
ten ance</w>
ess▁ or</w>
▁regis tered</w>
▁head quarters</w>
▁Sh in
oti ce</w>
er ce</w>
▁v oice</w>
▁circumst ances</w>
▁ab ove</w>
b a▁
ag ain</w>
▁exp ansion</w>
▁rel atively</w>
▁dis clos
op ped</w>
m od
es day</w>
J ap▁
E lec
2 2</w>
▁id ea</w>
▁D ue</w>
s u</w>
al ization</w>
▁war r
th ere</w>
▁W on</w>
anc y</w>
▁pl ac
▁p l▁
p reside▁nt</w>
▁reg istration</w>
▁M at
▁E ast</w>
in spec
ar ing</w>
▁s on</w>
▁auth ority</w>
en i▁ng</w>
M ar
it ure</w>
▁over all</w>
▁all owed</w>
h w
▁f ro▁m</w>
▁en h
if y</w>
ellig ence</w>
▁g re
w▁ ant</w>
▁includ es</w>
r▁ y</w>
e u
ch ange</w>
am a</w>
ut ting</w>
si t▁y</w>
en▁ t
▁separ ately</w>
▁corpor ation</w>
▁H is</w>
num b▁er</w>
▁invest ors</w>
▁candid ates</w>
▁F ood</w>
i▁s m</w>
el ect</w>
▁prof it</w>
m otion</w>
▁s elling</w>
▁r ad
▁aud ience</w>
sh ou▁ld</w>
fri end</w>
▁un it</w>
▁p eace</w>
▁Techn ology</w>
ris ti
c e▁
pro je▁ct</w>
Ch ung
▁S cience</w>
▁A ir</w>
it ment</w>
is tic</w>
▁super intendent</w>
ow on</w>
fort able</w>
▁proper ly</w>
or ▁s</w>
j ud
g overnment</w>
▁s orry</w>
1 9</w>
a▁ ted</w>
P h
1 1</w>
▁c elebr
o▁ k</w>
Y oung</w>
▁un ique</w>
▁typ es</w>
w▁h ic▁h</w>
t ea▁
ic ine</w>
art me▁nt</w>
▁ha ir</w>
ac king</w>
▁m y
▁f ourth</w>
▁5 th</w>
h ouse</w>
uris diction</w>
▁bas is</w>
▁pro posed</w>
ic h
ec k</w>
▁tour ism</w>
▁intern al</w>
▁dec l
ul t▁
T S</w>
▁qu al
▁consid eration</w>
▁car ry</w>
▁K won</w>
oo d
n▁ ment</w>
Par ty</w>
▁loc ation</w>
ult u▁re</w>
et er
▁s ure</w>
▁s afe</w>
▁it em</w>
▁a ▁t</w>
u▁ ty</w>
o x
b um</w>
▁publ ic
▁laun ch</w>
s ▁e</w>
p▁ er</w>
Ass oci
▁receip t</w>
urr oun
sm a▁ll</w>
e▁ as
b o</w>
▁S i</w>
ye o▁n</w>
▁web site</w>
sh i▁
sa▁ me</w>
it▁ tee</w>
an ti
P res▁
▁f un</w>
z ing</w>
Prov ▁
par ty</w>
occ er</w>
com pl▁
cl a▁
▁Bl ue</w>
o▁m y</w>
ea ker</w>
ad ing</w>
201 8</w>
s n</w>
▁l and
▁C up</w>
rou ght</w>
f▁ am
e ous</w>
at▁ ch</w>
▁s av
▁o lder</w>
▁them selves</w>
▁resol ution</w>
s eong</w>
iv al</w>
fr▁ ee</w>
e▁ ms</w>
ation ▁s</w>
▁con trac
off i▁ce</w>
▁pop ularity</w>
▁m id
▁clas ses</w>
ub e</w>
m en</w>
▁viol ence</w>
▁7 th</w>
yp toc
ploy ment</w>
ou ▁s</w>
g e▁n
eti mes</w>
▁consult ation</w>
▁b ott
▁menti oned</w>
▁C o
ular ly</w>
▁201 4</w>
s▁ an</w>
o ffice</w>
end▁ ly</w>
▁for est</w>
▁compreh ensive</w>
▁Je on
d iv
con tro
ou▁n t</w>
▁prog ress</w>
▁buil dings</w>
t ea
a▁ f
duc t</w>
s▁ ho▁
pr ise</w>
iv il</w>
st at
sch ool</w>
or i</w>
▁s ign</w>
t u▁r
oun▁ d</w>
t ogether</w>
&apos; t</w>
im inal</w>
▁draw ing</w>
▁coff ee</w>
▁A gric
▁1 5
st▁ r
s im
▁lim it</w>
in n
in g▁
ester n</w>
ch arac
un der</w>
O ffi▁ce</w>
i▁ l</w>
▁R iver</w>
vi ol
ok es
j▁ u</w>
▁report edly</w>
fo▁r m</w>
▁respon sible</w>
▁pro posal</w>
▁f ast</w>
▁crea ting</w>
con t▁
1 8
▁wa it</w>
▁t urn</w>
on ing</w>
a ign</w>
▁b at
ti e▁s</w>
over y</w>
ol ution</w>
e en
▁bro ke</w>
olog ies</w>
m▁ y</w>
▁S K</w>
um▁ ber</w>
ter m</w>
m a▁n</w>
k in▁g</w>
iz ▁
▁arres ted</w>
▁s h▁
▁grad u
en▁ d</w>
▁sec tion</w>
▁h uge</w>
▁cer tif
t e▁n
re▁ l
▁S un</w>
s ti▁
g ation</w>
al ized</w>
▁rea ched</w>
▁L im</w>
Se ou▁l</w>
▁er a</w>
▁coll ected</w>
▁7 0</w>
ti▁ v
C EO</w>
il i▁ty</w>
▁co ach</w>
manag ▁
a▁l f</w>
v a▁ri
s▁ ion</w>
ig ▁n
con sum
▁charac ter</w>
▁Dec ree</w>
▁Su won</w>
▁every one</w>
▁ar ticle</w>
▁P yeong
be e▁n</w>
▁sign ed</w>
▁sc ope</w>
g es</w>
em pl
ear ▁s</w>
N ew</w>
▁g iving</w>
▁pri ze</w>
▁clos ed</w>
d am
▁res ear
udg et</w>
j e</w>
b ea
ab y</w>
▁ev er</w>
▁confl ict</w>
it or</w>
comp any</w>
▁t ou
eb all</w>
N S</w>
Gye o▁ng
▁signific ant</w>
▁l etter</w>
▁c op
su it</w>
iti▁ ng</w>
h▁ ead</w>
▁m ak
▁201 9</w>
h▁ eld</w>
▁manufactur ing</w>
▁design ed</w>
▁disab led</w>
ter n</w>
st or
in v▁
lar ation</w>
eep ing</w>
com ing</w>
be▁c au▁se</w>
▁B o
agn os
▁T oday</w>
tr a</w>
m ation</w>
▁func tion</w>
▁dis mis
e ers</w>
p ean</w>
ac c▁
▁W ave</w>
t▁h er</w>
c▁ t</w>
&a▁pos▁ ;m</w>
▁prov iding</w>
▁af t▁er</w>
▁ab ility</w>
er ous</w>
▁s earch</w>
▁me etings</w>
▁ag enda</w>
oo▁ l</w>
d e▁c
P l
▁tal ks</w>
▁answ er</w>
t▁ il</w>
il es</w>
▁n ur
t▁ w
sh ips</w>
pl▁ an</w>
e un
dr▁ en</w>
ch i</w>
▁C entral</w>
t le</w>
s oci▁al</w>
m en▁ts</w>
▁r an
▁det ailed</w>
ent e▁r</w>
cl ear</w>
0▁ 0</w>
▁wat ching</w>
▁ar tists</w>
▁Y ang
▁Un like</w>
▁doll ars</w>
ver se</w>
▁ex port</w>
▁w ave</w>
s▁ et</w>
▁pl anned</w>
▁Ta i
▁Kor ▁
▁prac tice</w>
▁b it</w>
▁app eared</w>
k y</w>
m▁ on
ea u</w>
L iber▁ty</w>
▁den uclearization</w>
g▁ i</w>
p▁ op</w>
oc ked</w>
id o</w>
develop me▁nt</w>
ann er</w>
▁phys ical</w>
▁Un der</w>
tron ic</w>
s▁ u
▁g ap</w>
▁character istics</w>
or▁ y</w>
op er▁
ch ar
ow er
h ear
c re▁
▁con vers
▁al though</w>
si o▁n</w>
▁hea ds</w>
▁Econom ic</w>
y ph
▁sm o
▁elec tric</w>
u al
con diti
atten tion</w>
ol f</w>
▁intro duction</w>
▁cri ticism</w>
▁Ch ang</w>
w ards</w>
apor e</w>
&▁a pos▁;</w>
▁prepar ing</w>
▁h ear</w>
▁d ance</w>
un i▁ty</w>
▁presid ential</w>
▁B ud
ish ment</w>
att e▁n
▁every thing</w>
at▁ ions</w>
en▁ ed</w>
art en</w>
▁prov ides</w>
▁cl ean</w>
▁any thing</w>
▁ab road</w>
ex pres
ad ▁e</w>
▁stud ying</w>
▁ac tually</w>
y un</w>
sy ch
ex am
▁princi ple</w>
▁div ided</w>
▁Th rough</w>
r ect</w>
m an▁
Ch i▁na</w>
▁targ et</w>
▁sh ip</w>
▁aff ili
r a▁te</w>
e▁ ts</w>
▁wa iting</w>
▁ur g
▁main ly</w>
▁fi x
▁becom ing</w>
eed s</w>
▁crea tion</w>
rece iv
o▁n y</w>
ing u
do▁ wn</w>
uc▁ h</w>
c aus
▁retur ned</w>
▁play er</w>
y oun▁g</w>
osp it
&a▁ p▁os
▁l og
re g▁
k n▁ow</w>
g a▁
an m
E m
▁rea ch</w>
▁ow ners</w>
▁k illed</w>
▁al most</w>
▁8 0</w>
in▁ k</w>
bro ad
ad ium</w>
en tr▁
▁s elect</w>
▁recogn ized</w>
▁prot ect</w>
o▁ t</w>
ic ts</w>
▁sea ts</w>
▁J oseon</w>
n▁ er</w>
eco▁n omic</w>
▁sub scri
▁Indus try</w>
▁2 1</w>
Ch▁ oi</w>
▁n otice</w>
resid en▁ts</w>
on ds</w>
il▁ ity</w>
▁main tain</w>
str u▁c
s oo</w>
▁1 8th</w>
wh ic▁h</w>
J i</w>
▁ad j
p oin
A m
▁Fin ance</w>
o▁ w</w>
ong ▁
ch arg
▁commer cial</w>
▁all ow
w▁ an</w>
ov▁ ern
▁j urisdiction</w>
▁resid ent</w>
▁hist or
▁critici zed</w>
▁selec tion</w>
un k</w>
▁vac ation</w>
▁respon sibility</w>
▁Represent ative</w>
s▁ ee</w>
▁wee ks</w>
▁Euro pe</w>
a▁n cial</w>
1 3</w>
▁arres t</w>
▁t ex
▁househ old</w>
n▁ um▁ber</w>
am p</w>
▁ex act</w>
▁dep ending</w>
ta▁ in</w>
t y▁
▁for eign
af e▁ty</w>
▁sem iconduc
▁ch all
ess ment</w>
▁ex emp
g un</w>
▁tr ust
▁19 th</w>
t o▁r</w>
n▁ eed</w>
d▁ is
▁per c
▁a ward</w>
▁Y ear</w>
U .
▁per mission</w>
li▁ fe</w>
es ter</w>
ang ▁
▁C anad
b efo▁re</w>
▁A ustral
t▁h a▁t</w>
▁rati o</w>
ecu tive</w>
▁s ens
▁exerc ise</w>
▁dis app
i▁ um</w>
▁mov ies</w>
▁En forcement</w>
ev ent</w>
ad d
▁ma x
▁f air</w>
▁r ising</w>
ir ing</w>
elf a▁re</w>
a h
▁employ ee</w>
res p
C T</w>
▁for med</w>
7 ▁
u th</w>
o▁ ld</w>
▁fi elds</w>
▁f oun
ou▁ r</w>
me d▁
comp a▁ny</w>
▁em ail</w>
▁cl ean
con v
▁t able</w>
▁revis ion</w>
▁announ cement</w>
s eo</w>
p▁ eople</w>
p▁ ed</w>
▁Sup port</w>
f ull</w>
s or
r▁ un</w>
reg ul
or d▁er</w>
▁rem aining</w>
▁im pres
▁appoin tment</w>
▁reg ions</w>
r▁ ee</w>
b ing</w>
▁subsid ies</w>
▁par t
▁cor rec
▁expec t</w>
t▁ er
rough out</w>
fri end▁ly</w>
ere fore</w>
▁shar ing</w>
gro▁ up</w>
onom ous</w>
ex pen
A l
▁main tenance</w>
▁Ex per
pro du▁c
a▁ y
▁s cience</w>
▁tow ard</w>
▁run ning</w>
▁l ic
▁expec ts</w>
▁D aejeon</w>
serv i▁ce</w>
mo▁ st</w>
it ary</w>
b est</w>
th em
▁Y e
v i▁ce</w>
s yst
pro gr
▁restaur ants</w>
▁acc ess</w>
ter ▁s</w>
▁f res
▁comm unic
s c▁h
ing ▁s</w>
▁dr ink</w>
m ay</w>
; ▁t</w>
▁estim ated</w>
sc ape</w>
l et
i on▁al</w>
▁mov ing</w>
re pres
o▁ ff</w>
▁11 th</w>
sit u
▁del ayed</w>
▁chil d
▁ en</w>
per c
ten s</w>
r ing</w>
at▁ io▁n</w>
as ty</w>
▁dram as</w>
z ens</w>
igh ting</w>
us ion</w>
t es</w>
a i▁n</w>
▁proced ures</w>
us h</w>
▁T ur
▁B ar
priv a▁te</w>
m ea▁
▁l onger</w>
▁l in
▁Th erefore</w>
▁O ffic
og y</w>
h ou
c re
Gye▁ong gi</w>
▁l at
end ation</w>
ag ric
▁r ange</w>
▁accoun ts</w>
▁H u
u▁ te</w>
h igh
1 2
▁sch ol
o▁ or</w>
ay ▁s</w>
▁success ful</w>
▁meth ods</w>
▁a b▁
ac ked</w>
▁bo x</w>
i▁ ties</w>
it age</w>
go▁ od</w>
er ry</w>
▁re fl
▁H w
pos iti▁on</w>
wh▁ at</w>
ro r</w>
pro▁ v
al ▁s</w>
est ab
▁claim ed</w>
w▁h en</w>
l ight</w>
ch ▁ed</w>
▁cho ose</w>
▁l ibrary</w>
▁g ift</w>
▁f os
▁discus s</w>
ip ped</w>
en▁ ter</w>
as es</w>
▁farm ers</w>
issi on
20 0
▁r ental</w>
▁canc er</w>
▁M al
▁2 3</w>
sid ering</w>
U ▁n
H w
▁bl ock
re v▁
our ism</w>
▁in struc
▁c ro
▁In dones
▁D id</w>
h ead
ee ts</w>
educ ati▁on</w>
c ur
ati cally</w>
C▁ EO</w>
▁succ ess</w>
▁6 th</w>
us band</w>
os s</w>
▁wr ite</w>
▁wor d</w>
▁no thing</w>
▁investig ate</w>
B us▁
▁mean ing
▁br anch</w>
F r
▁w ind</w>
▁acc ep
r ul
hy ▁un</w>
dep end
▁minis ter</w>
▁I m
Prov inci▁al</w>
▁improv ed</w>
▁foc using</w>
w ater</w>
h el▁
▁influ ence</w>
▁Euro pean</w>
incl▁ud ing</w>
▁h op
▁dis count</w>
per son</w>
ab▁ or</w>
M in
▁pos t
▁dem onstr
i▁ st</w>
▁w ide</w>
comp anies</w>
be▁ c▁
▁u ng</w>
eed ing</w>
▁K ak
unic ip
stud en▁ts</w>
pl an</w>
l if
e ech</w>
▁in conven
▁&q▁u ot▁;</w>
pre par
ick en</w>
ell ow</w>
eal ing</w>
.▁ m.</w>
▁suspec ted</w>
▁def ense</w>
▁pl aying</w>
u ti▁on</w>
u als</w>
o▁ ur</w>
en ch</w>
an e▁se</w>
▁sh ou
▁phot os</w>
▁n ot
str eng
c ent▁er</w>
▁foc used</w>
▁do or</w>
▁f oundation</w>
▁12 th</w>
c ar</w>
▁pic tures</w>
▁contin ues</w>
w eek</w>
th en</w>
so▁ me</w>
ab l▁e</w>
▁st ocks</w>
▁maj ority</w>
▁exp anded</w>
i▁ ght</w>
ic ated</w>
Un iversi▁ty</w>
1 6</w>
▁exp anding</w>
er man</w>
▁201 3</w>
t en</w>
pol ▁
S. -
▁t our</w>
1 5
▁ob jec
▁cas h</w>
inc o▁me</w>
▁recomm end</w>
▁ad op
▁3 1</w>
o▁ wn</w>
e tion</w>
▁install ation</w>
p▁ rov
igh tly</w>
▁mean ing</w>
um s</w>
p on</w>
ad minis
iz ati▁on</w>
▁gr ade</w>
▁8 th</w>
us i▁ng</w>
ow▁ n</w>
cr im
ar ou▁nd</w>
an y
▁meas ure</w>
▁kn owledge</w>
▁h imself</w>
▁c h▁
ar ious</w>
▁pres ented</w>
p ar▁ty</w>
m▁ ak
▁fl ight</w>
▁Ch r
▁1 5th</w>
▁z one</w>
▁sup porting</w>
▁K i</w>
ul ner
s on
▁w ants</w>
▁un its</w>
▁coll ap
with o▁ut</w>
vis ory</w>
e▁ es</w>
el e▁c
▁s ongs</w>
▁fac tory</w>
bus▁ iness</w>
▁ex ternal</w>
▁res c
▁recor ded</w>
▁Con sidering</w>
▁Ch il
▁ex ports</w>
▁eff ective</w>
vi ously</w>
ed s</w>
▁spr ing</w>
▁pen sion</w>
▁T able</w>
▁heal thy</w>
e▁ as</w>
▁pri or</w>
▁l e
g ame</w>
yptoc urr
2 1</w>
▁st ep
▁sm art</w>
▁in form
▁19 8
ot▁ al</w>
mak i▁ng</w>
con tr
N▁ orth</w>
▁sl eep</w>
▁scre ening</w>
▁Chung ch
m il▁
▁Ph il
y ong</w>
i▁ an</w>
ew ork</w>
▁qu ite</w>
▁counsel ing</w>
us es</w>
le▁ ss</w>
k ▁s</w>
▁special ized</w>
is su
f our</w>
en tur
▁m eal</w>
ur i▁ty</w>
os an</w>
b ly</w>
M ay▁or</w>
▁del ay</w>
w▁ oo</w>
tici p▁
▁all ows</w>
r ate</w>
el ess</w>
c ul▁
▁concer n</w>
va▁ri ous</w>
h ow</w>
▁p ack
▁met ers</w>
▁lim its</w>
▁ex am</w>
▁d aughter</w>
or d
emb▁ ly</w>
a ug
g g
▁trust ee</w>
id e▁nt</w>
g▁ r
o ad</w>
ch it
▁per f
▁neg ative</w>
▁H ee</w>
sp▁ec ial</w>
j ec▁ts</w>
indus try</w>
ep h
den ly</w>
▁P a
ta x</w>
ro te</w>
a is
▁2 2</w>
ter ing</w>
i ew</w>
hel p</w>
▁f a
▁Dep uty</w>
e▁ d
▁f ishing</w>
7 0</w>
▁brea k</w>
▁J ust</w>
ou d</w>
em ▁s</w>
▁sup ported</w>
▁f ail
▁Y our</w>
se▁ l
h es</w>
b ody</w>
▁end eav
▁emphas ized</w>
▁c o</w>
th ree</w>
c tion</w>
b ig</w>
▁tr ust</w>
▁sol di
▁reven ue</w>
▁rap idly</w>
▁n ine</w>
s e▁n
por t▁
or ies</w>
▁tick et</w>
▁f ar
▁improv ing</w>
▁gen der</w>
ov▁ er
▁tax es</w>
▁refl ect</w>
su per
p▁ ro▁
R ep
D ong
, 5
ten tion</w>
p▁ er▁
T h▁
▁th inking</w>
▁p aying</w>
▁Ch risti
h ae</w>
S u▁
C enter</w>
▁adver tis
▁M et
ho▁ me</w>
e▁ g
a▁ in
as ing</w>
▁St ar
r ement</w>
l▁ ow</w>
▁Bud dh
m ar▁
i▁ p
ym b
re▁ e</w>
con duc
c a▁re</w>
▁sur gery</w>
▁s urroun
▁f al
y r
ri age</w>
pr▁ es
m a</w>
c ou▁ld</w>
▁in ▁
▁ar r
▁al tern
▁Pen insula</w>
▁advant age</w>
p▁ h
mo ti▁on</w>
en g</w>
En g
D em
▁warr ant</w>
▁mon thly</w>
ti▁ ce</w>
c ol
b▁ een</w>
▁increa ses</w>
t ant</w>
prov ▁
or der</w>
bl ic</w>
▁tw ice</w>
▁att emp
▁2 1st</w>
i▁n k</w>
am ▁p
▁cl im
▁S en
▁2 7</w>
▁pro duce</w>
▁Air port</w>
ov ement</w>
ffici ent</w>
▁comp uter</w>
▁chang ing</w>
▁bir th</w>
▁Gyeong sang</w>
ac cor
▁adv anced</w>
to▁ ok</w>
es t▁ed</w>
8 ▁
▁p etition</w>
▁fac tors</w>
▁avo id</w>
▁N ot</w>
di ff
9 ▁
▁serv ed</w>
▁consum er</w>
m i▁ll
in ated</w>
C e▁n
▁publ ished</w>
▁h ▁
▁conn ection</w>
▁3 00</w>
res t</w>
▁fir s▁t</w>
▁cont ains</w>
t oms</w>
s i▁ng</w>
Coun c▁il</w>
▁rel ations</w>
w oo</w>
ver si
th▁ en</w>
s o▁n</w>
▁ordin ary</w>
▁H a</w>
t o▁rs</w>
t og
igh▁ ts</w>
ha▁ d</w>
end ly</w>
▁Pro motion</w>
▁1 7th</w>
tr a
con s▁
d i▁s
b illi▁on</w>
S▁ t
s ee</w>
ic ul
est ock</w>
▁2 7th</w>
c andid
▁t ro
▁sett lement</w>
▁manag ed</w>
▁m ist
▁enter prises</w>
▁cont est</w>
▁’ ’</w>
▁sever e</w>
▁plat form</w>
▁n orthern</w>
▁des pite</w>
▁ref und</w>
▁fil ms</w>
▁e p
▁O lymp
ri es</w>
j i▁n</w>
f ive</w>
▁u m</w>
▁coll ect</w>
elec omm
▁M ex
m a▁n
ch ar▁ge</w>
▁complet ely</w>
▁E un</w>
in▁ ed</w>
ic o</w>
ep tion</w>
eo k
▁ob serv
▁grea tly</w>
▁ar ts</w>
re ign</w>
▁consum ption</w>
▁arriv ed</w>
per s▁on</w>
or g
j u▁st</w>
e▁ w</w>
a▁n k</w>
o▁ uld</w>
om p
m▁ ed</w>
▁th roughout</w>
▁B usiness</w>
In v
▁believ ed</w>
▁b rought</w>
▁F air</w>
meas ures</w>
ea▁ se</w>
Ch ang</w>
▁suffer ed</w>
▁sub way</w>
▁ass ets</w>
▁B yung</w>
▁e ating</w>
▁bus y</w>
▁Or ganiz
▁F l
j eong</w>
▁5 00</w>
r ying</w>
h▁ im</w>
a▁ tions</w>
rup tion</w>
in form▁
c ing</w>
h ar
ff er</w>
M o▁on</w>
▁ser ve</w>
▁mark eting</w>
▁&a p▁os;s</w>
▁rev ital
i▁c s</w>
▁week end</w>
▁inc urred</w>
▁gir l</w>
▁enter ing</w>
j▁ ect</w>
▁G im
▁Em ployment</w>
el▁ l</w>
c ri▁
▁f ish</w>
▁car eer</w>
en om
anc ing</w>
▁spen d</w>
▁bea uty</w>
▁M arket</w>
si▁ ve</w>
p at
op ic</w>
offic i▁al</w>
l et</w>
ilit a▁ry</w>
▁Kor▁ ea</w>
wh a</w>
▁sc reen</w>
▁em p
▁In t
▁2 5th</w>
su▁ l
Ch airm▁an</w>
▁R ules</w>
f are</w>
es▁ t
b▁ r
1 1
g res
e up</w>
ash ion</w>
Artic▁ le</w>
▁develop ing</w>
vi ews</w>
l ines</w>
▁there of</w>
res pec
e i▁gn</w>
▁M ountain</w>
pr ac
m ain</w>
ff s</w>
▁pr elimin
sum m▁it</w>
ma j▁
ir▁ ec
ir it</w>
K RW</w>
▁revis ed</w>
▁m id</w>
an o</w>
▁U lsan</w>
▁Mot or</w>
▁E l
▁ itan</w>
l arg
is▁ ion</w>
M E
▁endeav or</w>
row▁ th</w>
h an</w>
g▁ es</w>
es sive</w>
ag s</w>
▁requ ire</w>
▁occ ur</w>
▁disab ilities</w>
ev e▁nt</w>
comm ittee</w>
ac ity</w>
▁res ervation</w>
▁prom oting</w>
▁Un ion</w>
y cl
produc ▁ts</w>
▁201 2</w>
▁s e▁
▁del eg
i▁ od</w>
A c
▁pi ec
▁S ports</w>
▁Ir an</w>
v ey</w>
p▁ eop▁le</w>
ati o▁n
a h</w>
▁s occer</w>
▁for ced</w>
▁G w
tr i▁es</w>
fam i▁ly</w>
▁join ed</w>
i▁ z
eo l</w>
em erg
▁un able</w>
▁lec ture</w>
▁l i
▁ tion</w>
gre di
ag ▁es</w>
▁suffer ing</w>
▁m os
▁perform ed</w>
▁e ye</w>
▁di agnos
▁W omen</w>
mon y</w>
▁1 4th</w>
v▁ is
be▁ t
ag ers</w>
m o▁n
h ee</w>
den uclear
W or
2 4</w>
▁an ti</w>
▁m ountain</w>
▁j oin</w>
▁finis hed</w>
tit ude</w>
n e</w>
k m</w>
ch i▁ng</w>
▁sp eak</w>
i▁ a</w>
ili ar</w>
Pro▁ v
▁elec tronic</w>
▁effici ent</w>
▁coun ty</w>
tur ed</w>
s o
i ate</w>
h▁ av
▁war m</w>
▁trans l
▁signific antly</w>
ch an▁ge</w>
▁victi m</w>
▁1 4
f i▁n
c▁ y</w>
▁t rees</w>
d▁ ong</w>
▁dam aged</w>
say in▁g</w>
o▁r k</w>
em ory</w>
ad ed</w>
▁v ill
▁prepar ation</w>
▁3 0th</w>
in j
▁appro priate</w>
s▁ ocial</w>
lea d▁er</w>
▁hos ted</w>
▁confir m</w>
n in▁g</w>
▁st anding</w>
▁pro por
▁W ar</w>
oo ks</w>
h ouseh
▁inten tion</w>
▁C o</w>
ag ▁ed</w>
▁consid er</w>
q ▁
l evel</w>
ca▁ se</w>
be▁ tw
tro l</w>
n o
i a▁l</w>
ar▁ ds</w>
ta x
im chi</w>
▁mod ern</w>
▁f ru
▁broad cast</w>
▁ o▁t;</w>
pol iti
j▁ ob</w>
be▁c ause</w>
b usiness</w>
Jap ane▁se</w>
▁r ose</w>
▁c row
p▁ ly</w>
des ign
▁chec ked</w>
▁C or
▁prof its</w>
▁expec tations</w>
▁F ederation</w>
▁ac tor</w>
ear▁ ly</w>
▁decrea se</w>
▁13 th</w>
w ea
t▁h an</w>
p ut</w>
arm ac
▁in gredi
ech n▁
▁ven ue</w>
▁underst anding</w>
wi▁th out</w>
m ir
d ire▁c
a▁ de</w>
▁9 th</w>
t▁ ure</w>
or▁ ld</w>
tur ing</w>
th qu
▁ear n
il m</w>
b▁ u
▁str ugg
▁prof essor</w>
▁f illed</w>
oy ang</w>
m em▁
▁broadcas ting</w>
▁activ ity</w>
▁a th
▁N av
▁&apo▁s ;</w>
ta ek</w>
s ons</w>
ma▁ in</w>
b▁ l
▁f alls</w>
y et</w>
att le</w>
▁t r▁
ur o</w>
gen er▁al</w>
▁p re</w>
▁new sp
▁dro p</w>
▁dec line</w>
▁S ou
u▁ s</w>
▁sc ore</w>
▁m ale</w>
▁D ay</w>
w er▁e</w>
o▁ od</w>
il ▁e</w>
▁cal cul
▁Q u
▁H all
pos es</w>
▁block chain</w>
▁back ground</w>
kno▁ w</w>
h▁ ee</w>
▁im possible</w>
ith er</w>
comp a▁n
▁sing er</w>
▁f r▁
o▁n t</w>
▁d eep</w>
ro▁ om</w>
com ▁e</w>
a▁l l
aem un</w>
S ch
1▁ st</w>
▁vol ume</w>
▁fix ed</w>
▁dev ices</w>
y ond</w>
ong ly</w>
▁ch ann
d ly</w>
b eh
atis tics</w>
K▁ RW</w>
▁win ning</w>
▁prac tic
▁Br az
n ame</w>
ist ance</w>
▁t rou
▁sp ent</w>
▁proc eed</w>
▁my self</w>
▁m ix
▁N a</w>
Se ung</w>
G en
iter ia</w>
B r
▁e d
i▁ st
h a</w>
f oc
▁subsid ize</w>
▁recru itment</w>
▁foreign ers</w>
▁dep uty</w>
G w
▁w eight</w>
ol v
▁J eon</w>
l o▁ng</w>
im po▁r
▁strateg y</w>
▁s i</w>
▁lear ned</w>
▁kin ds</w>
eg et
ar ks</w>
▁prelimin ary</w>
▁c alls</w>
prof ess▁or</w>
1 7</w>
▁dis cipl
tr al</w>
il▁ y</w>
ic ious</w>
al ty</w>
pol i▁cy</w>
u▁ l</w>
▁leg isl
▁foll ows</w>
▁Fac ebook</w>
v e▁r
b ook</w>
a▁f t▁er</w>
R us
▁se em</w>
▁N o.</w>
m y
f a▁c
▁discus sion</w>
▁cor respon
▁ch oice</w>
▁caus ing</w>
▁Com plex</w>
w on
m ▁e</w>
▁in ev
▁con tribute</w>
▁w alk</w>
▁meaning ful</w>
▁concer ned</w>
▁Ch eon
s ing
qual i▁ty</w>
pro▁ ve</w>
op in
d a▁ys</w>
st u▁d
▁wea k</w>
▁respec tively</w>
▁k ept</w>
▁f oot
▁D el
ty▁ pe</w>
oo gle</w>
med ium</w>
ig n▁
▁V illage</w>
r u▁
▁B i
et ers</w>
▁S ong
et er</w>
▁w earing</w>
▁sugg ested</w>
▁lo ts</w>
▁h usband</w>
▁expl ain</w>
▁d ang
▁R ev
ch▁ er</w>
b ec▁
▁ex clus
▁b all</w>
us ▁e</w>
sch ed
c▁ ome</w>
be ing</w>
▁r ob
l ar▁ge</w>
cooper ati▁on</w>
b as▁
ard less</w>
ag o</w>
▁y oun
▁ro oms</w>
▁lawmak ers</w>
▁happen ed</w>
▁b i
itt e▁e</w>
▁nation wide</w>
stitu▁ te</w>
bo ard</w>
am p▁
i ences</w>
▁wr it
▁s il
▁dec ide</w>
is ▁h
in t</w>
ex ▁p
r un</w>
in derg
▁med icine</w>
▁expen sive</w>
▁ap prec
▁Se jong</w>
i▁ ss
b ri
▁techn ologies</w>
▁Environ ment</w>
u ven
o▁ y
ea s▁
Ch in
B ar
▁ad mission</w>
im p
▁m ean</w>
▁Wh ite</w>
▁1 6th</w>
c u▁r
Ch o</w>
▁do g</w>
▁difficul ty</w>
▁ach ieve</w>
der ship</w>
▁w rote</w>
▁proc essing</w>
▁jud ge</w>
▁bri ef
▁ap artments</w>
▁Americ a</w>
um b
p ow▁er</w>
om y</w>
ig ning</w>
appl ic
▁conduc ting</w>
ove▁r n
oti onal</w>
▁rem ains</w>
▁m ulti</w>
▁A pp
▁&a pos▁;</w>
n y</w>
c oh
Y e
▁lea ving</w>
▁cl aim</w>
il ian</w>
el ong</w>
▁anim als</w>
n at▁ional</w>
inv est▁
d om</w>
c ustom
N ati▁onal</w>
▁g ar
▁d inner</w>
▁d ead
▁cl ass
wit h▁in</w>
th rough</w>
s▁ up
C o▁m
▁occ urs</w>
▁P re
tific ial</w>
te▁ st</w>
coun try</w>
V ▁
▁enter tainment</w>
▁Prosec utors</w>
▁2 8th</w>
▁2 8</w>
▁1 6
par t</w>
n ecess
▁ro ads</w>
▁In st
p ast</w>
g▁ un</w>
f ree</w>
▁l isten
▁depos it</w>
▁believ es</w>
w▁h i▁ch</w>
sib▁ le</w>
▁th or
▁n ice</w>
ra is
J e▁
&ap▁os▁; ll</w>
▁s ource</w>
▁pl ants</w>
ter n▁
i▁ rd</w>
e z
C om▁
▁di plom
▁budg etary</w>
▁subpar agraphs</w>
▁hand le</w>
▁dis eases</w>
▁bro ther</w>
▁T ourism</w>
▁L ine</w>
▁2 6th</w>
ign ed</w>
yn asty</w>
r▁ eg
memb ers</w>
fin a▁ncial</w>
eo s</w>
▁shar ed</w>
▁s un
pol icy</w>
M ed
vis it▁ed</w>
tric ity</w>
ag r
1 4</w>
▁w el
▁iss u
▁B ased</w>
uc h
s▁ho▁ uld</w>
s▁ c
o▁ d</w>
comm od
buil ding</w>
▁An aly
▁2 6</w>
s▁h ould</w>
Ad ministr
▁pati ent</w>
▁Sing apore</w>
b it</w>
▁g ets</w>
▁Rus sian</w>
um n</w>
en ge</w>
d▁ uri▁ng</w>
devel op▁
▁ch ea
▁mis sing</w>
ye o</w>
og s</w>
c ept</w>
▁innov ation</w>
▁c ateg
▁Ch ang
tiv ity</w>
a▁ ir</w>
ast es</w>
go ing</w>
ar tens</w>
▁direc tors</w>
h a▁lf</w>
a▁ id</w>
▁d ay
▁cooper ate</w>
fo▁ od</w>
ay er</w>
P en
w at
ff▁ ice</w>
c ou▁n
T echn
▁loo ked</w>
▁l iter
d▁ en</w>
con fir
▁tempor ary</w>
mon▁ th</w>
e a▁rs</w>
. 0</w>
▁Des pite</w>
r▁ eal
pro▁ duc
ci enti
▁opport unities</w>
sti c</w>
st a▁n
p▁l an</w>
offic ial</w>
form s</w>
J in</w>
▁w ind
▁shar ehol
▁decrea sed</w>
▁bor n</w>
t▁ ur
t aining</w>
▁judg es</w>
▁c over</w>
▁M yung</w>
offici a▁ls</w>
jec ▁t</w>
i▁ me</w>
▁f oods</w>
▁dig ital</w>
▁P al
es ti▁
▁coun ter
▁H ave</w>
▁F ire</w>
s▁t em</w>
rou▁ p</w>
n ight</w>
i ors</w>
fl o▁or</w>
dis cus
c el
an c▁es</w>
▁rec on
r ent</w>
m ul
eor ological</w>
▁w ear</w>
▁rel ig
▁in frastructure</w>
▁cons erv
▁comp et
▁b ag</w>
ol▁ l
al▁ l
T ae</w>
▁acc ept</w>
▁academ ic</w>
fir e</w>
▁st able</w>
ou T
ch i▁l
bu i▁l
▁st yle</w>
pp er</w>
it▁ h
inc rea▁se</w>
c il
A ff
▁tour ist</w>
▁cr yptocurr
▁In ter
pro mo▁
p e▁n
l ook</w>
e tr
Jap an</w>
H an
Gyeo▁ng gi</w>
▁fe eling</w>
▁Y i</w>
▁S ocial</w>
ot o</w>
o g</w>
eval u
S ung</w>
▁wor ried</w>
ain▁ ed</w>
Metropol ▁itan</w>
ur i</w>
▁mean time</w>
v e▁
fi▁ ve</w>
▁stor ies</w>
▁report ers</w>
yph oon</w>
ug s</w>
t▁ es</w>
o▁s s</w>
n a▁m</w>
ic a</w>
▁gr ounds</w>
▁competi tiveness</w>
yp e</w>
oc ation</w>
▁W ould</w>
pp ed</w>
gover▁n ment</w>
▁v ote</w>
▁l ived</w>
▁gr and
▁H uman</w>
v id
devel ▁
1 4
▁oper ator</w>
▁comm ission</w>
▁ass essment</w>
ap s</w>
ri▁ ed</w>
entur y</w>
▁sh or
▁requir es</w>
un d▁
re p
al s▁o</w>
▁off er</w>
▁R oh</w>
g e▁t</w>
ac qu
D o</w>
▁c at
▁W oo</w>
per for▁m
id ays</w>
und er▁
sy▁ st
construc ti▁on</w>
▁prom oted</w>
g a▁me</w>
G u
▁se emed</w>
▁elec tions</w>
▁L ife</w>
et▁ c.</w>
an ning</w>
R eg
8 0</w>
▁st opped</w>
▁n amed</w>
▁cr iminal</w>
s ex
inc r▁
fo▁ ur</w>
c itiz
f▁ ir
t own</w>
re tur
h ood</w>
▁ind ex</w>
pur su
e w▁
▁represent atives</w>
in f
h wa</w>
▁symp toms</w>
ic ro
&ap▁os▁ ;s</w>
▁K y
▁2 3rd</w>
meas ur▁es</w>
▁compl etion</w>
▁Ch urch</w>
▁B ur
r on
be fore</w>
▁G erman</w>
r▁ ev
ot es</w>
l ot</w>
▁rul es</w>
▁de ep
▁comp r
▁pus h</w>
▁fea tures</w>
▁d ead</w>
i▁n ess</w>
e e▁n</w>
▁respon d</w>
▁cr iteria</w>
sup port</w>
▁t en</w>
▁g old</w>
t ains</w>
st ate</w>
▁aut onomous</w>
o▁ p</w>
mp ;</w>
en ever</w>
devel o▁p
&a▁ mp;</w>
▁Un til</w>
w▁ a▁s</w>
le▁ ft</w>
▁sh ort
▁b aby</w>
t▁h is</w>
resid ents</w>
Gover n▁or</w>
in ally</w>
be▁c aus▁e</w>
an▁ ds</w>
▁par liam
▁dis pl
▁app earance</w>
w ar
o▁c k</w>
in▁ es</w>
hy un</w>
ac▁ k</w>
▁con ver
▁Tai wan</w>
l ic</w>
g h▁
g e
f ication</w>
▁qu anti
▁Ar t</w>
s▁ chool</w>
es us</w>
enom en
do▁ es</w>
ar▁ k</w>
▁repor ter</w>
n a▁
intro duc
ex ecu
▁t o
▁f ol
▁dev ice</w>
▁Fr ance</w>
▁B ri
or th
▁res tor
▁appl ying</w>
maj▁ or</w>
▁j ourn
▁en ded</w>
r▁ ef
resid ▁
at e▁s</w>
▁ex ec
▁aff ected</w>
pol i▁ce</w>
er ate</w>
▁soldi ers</w>
▁s ides</w>
▁b a▁
id en▁t</w>
d re▁
av es</w>
auth or
▁offic es</w>
▁lun ch</w>
▁experi enced</w>
w ar</w>
u ce</w>
e ti▁ng</w>
cla▁ ss</w>
▁interpre ted</w>
t e▁rs</w>
A gric
▁sh ape</w>
w omen</w>
unicip al</w>
stitu tional</w>
m i▁n</w>
e f▁f
be▁tw een</w>
▁v o
▁smartph one</w>
▁dr ug</w>
▁any one</w>
am b
▁U. S.-
ul atory</w>
fin anci▁al</w>
el ines</w>
c enter</w>
▁r i</w>
▁brea k
w are</w>
ic▁ ation</w>
h ab
▁extr a</w>
t in
n orm
▁R ule</w>
wor ki▁ng</w>
k i</w>
a▁ pp
atur day</w>
▁charac ters</w>
we▁ en</w>
w r▁
l ear
jec ted</w>
▁pain ting</w>
▁inj ured</w>
▁clas si
▁ac tors</w>
▁S ohn</w>
y▁ ing</w>
t al▁
▁2 4th</w>
is t▁
▁r ail
▁P ri
▁Met eorological</w>
▁At tention</w>
▁Am id</w>
z a</w>
m ut
iti o▁n</w>
▁9 0</w>
s▁ec ond</w>
por t▁ed</w>
l in
en der</w>
▁farm ing</w>
re duc
r an
om▁ en</w>
l▁ ea
ab ilities</w>
A T</w>
▁up on</w>
▁sh op</w>
▁ab use</w>
▁Y outh</w>
ti m▁
ex es</w>
ch arge</w>
all ey</w>
▁r ain
▁ob tain</w>
si▁ an</w>
ro▁ ad</w>
amp ion
▁caus es</w>
▁anim al</w>
▁acc ur
iv▁ il</w>
ch i▁ef</w>
Min▁ is▁
▁independ ence</w>
▁i sn</w>
l arge</w>
a▁n ge</w>
Bus▁ an</w>
&a▁po▁s ;m</w>
▁st ated</w>
▁favor ite</w>
w▁ ell</w>
iti me</w>
ex hib
en t▁ed</w>
▁1 7
t able</w>
sen i▁or</w>
in eering</w>
evel s</w>
der ing</w>
b▁ al</w>
▁S oo</w>
▁E specially</w>
vi▁ ew</w>
n▁ o</w>
m ilita▁ry</w>
en g▁
c irc
▁s u▁ch</w>
ye o▁ng</w>
S a▁m
▁s eat</w>
▁reti rement</w>
▁mer ch
▁design ation</w>
▁1 ,000</w>
▁w all</w>
▁tas k</w>
▁m oun
t ot▁al</w>
par ticip▁
oc i▁
me eting</w>
la▁r gest</w>
f ea
▁beg in</w>
▁Con f
r▁ i</w>
pol i▁
kno▁ wn</w>
i▁ ld</w>
id ▁e</w>
▁tick ets</w>
▁f an</w>
s▁ m
s ch▁
be▁ st</w>
▁elec tricity</w>
▁argu ed</w>
th us
er o</w>
al es</w>
▁offic ers</w>
▁expen d
pers on
ist en</w>
▁r ent</w>
▁coun ties</w>
▁as king</w>
▁A I</w>
▁2 2nd</w>
par t
o▁ o</w>
N am
▁norm al</w>
m id
▁syst ems</w>
ef ully</w>
a es
&ap▁os;▁ ll</w>
▁k il
▁guarant ee</w>
▁applic ants</w>
▁Hy e</w>
c e▁r
c eme▁nt</w>
aw ay</w>
▁res erv
rea l
m▁ arket</w>
facil iti▁es</w>
▁s now</w>
▁rem ember</w>
▁re view
▁Mat ters</w>
wo▁ o</w>
sec ond</w>
e▁ un</w>
ed n
Univer sit▁y</w>
▁surroun ding</w>
▁sol ution</w>
▁inter esting</w>
▁cl early</w>
t a▁l
pe▁ ople</w>
ec ti▁on</w>
d u▁r
atten ti▁on</w>
▁th rea
▁sud denly</w>
▁streng th</w>
▁ren ew
▁Serv ices</w>
if th</w>
a▁ st</w>
▁1 .
w▁ ork</w>
th▁ rou▁gh</w>
hy u▁n</w>
▁som etimes</w>
▁sc ale</w>
▁d ri
som e▁
r▁ el
▁execu tives</w>
▁S ea</w>
▁G oogle</w>
ev ▁er</w>
D ay</w>
▁t ext</w>
▁s in▁ce</w>
▁cam era</w>
t▁h em</w>
f ast</w>
am ic</w>
G overnment</w>
▁sec ured</w>
▁cr imes</w>
il ing</w>
N▁ ew</w>
▁urg ent</w>
h e▁r</w>
ess▁ es</w>
eas ▁e</w>
▁expres s</w>
▁P ort</w>
e▁ an</w>
ec onom
c u▁l
ar ti
▁Sp eaker</w>
r it
all eg
Manag eme▁nt</w>
C it▁y</w>
▁s ample</w>
▁neigh bor
▁app ear</w>
▁ab ol
▁N owon</w>
▁B TS</w>
▁Ac tor</w>
st art</w>
ret a▁ry</w>
op port
▁phot ograp
▁S w
u tr
s▁ y
perform an▁ce</w>
inform ati▁on</w>
est ment</w>
at trac
▁sub st
▁expl an
i▁ th</w>
d▁ y</w>
S S</w>
J u▁
Ch oi</w>
▁sign s</w>
▁m ental</w>
▁f o▁r</w>
p y</w>
op h
d ents</w>
c ultur▁al</w>
ar di
▁pl eas
▁dr inking</w>
▁Indi a</w>
▁Gyeong sang
▁Fr ench</w>
t▁ ;</w>
ou te</w>
on s
law mak
ft e▁r</w>
entr▁ al</w>
e t▁her</w>
▁civ ic</w>
pos▁ ;t</w>
▁form ulate</w>
▁for ec
▁Mal ay
th a▁n</w>
pro m▁
▁shar es</w>
▁exchang es</w>
vis▁ it</w>
ten ed</w>
rec omm
he▁ e</w>
b i▁ll
▁tit le</w>
▁M ovement</w>
in ks</w>
en vir
e k
▁sen ding</w>
▁guid ance</w>
sm all</w>
m▁ ade</w>
▁v ia</w>
▁notif ied</w>
▁c ell</w>
▁Y u</w>
▁B u
w in</w>
pro ject</w>
l a
in clu▁
f un▁
▁ha ven</w>
▁Lea gue</w>
expec ted</w>
er ▁ed</w>
P ubl▁ic</w>
ati z
E n▁
▁complain ts</w>
tis h</w>
s eas</w>
o▁ und</w>
in▁ a</w>
h ard</w>
c oo
▁o ▁n</w>
▁for ces</w>
▁elec ted</w>
▁eff ort</w>
▁/ /</w>
par tic
1 ,
▁fin ally</w>
▁U S
t▁ op</w>
s h</w>
n eung</w>
en tion</w>
be▁t we▁en</w>
▁respec t</w>
▁m eat</w>
▁design ate</w>
Se▁ oul</w>
Hy un</w>
▁sou thern</w>
t▁h s</w>
p ons</w>
ic ide</w>
f ur
ati▁ ons</w>
▁dou ble</w>
▁dis play</w>
▁d e▁
▁camp aign</w>
▁be yond</w>
w in
v ehic
thea st</w>
2 3</w>
▁sl ow
im port
M ay</w>
▁volunt eer</w>
▁mul ti
s oon</w>
l y
investig ati▁on</w>
d eb
con tr▁
▁suspen ded</w>
▁pr ison</w>
▁or ders</w>
▁mach ine</w>
th day</w>
g ot</w>
▁u pper</w>
▁rep air</w>
▁grad ually</w>
▁chec king</w>
▁Sm all</w>
▁In formation</w>
w▁ il▁l</w>
ur s
su▁ b
iz e▁d</w>
b it
▁func tions</w>
yong yang</w>
oy al</w>
o ong</w>
in nov
ev e▁n</w>
buil di▁ng</w>
▁t ree</w>
▁l iqu
▁fig ure</w>
▁cor rect</w>
▁cons ecutive</w>
▁conc ept</w>
el lec
a▁ ti▁ons</w>
▁w it
▁on es</w>
▁H eung</w>
l ig
comp▁ an
Ass embly</w>
▁wal king</w>
▁th er
▁tal king</w>
▁st one</w>
▁g ives</w>
▁K o▁
iti gation</w>
app y</w>
▁sc en
▁s ymb
▁Coun ty</w>
dis c
▁max imum</w>
▁m ag
▁curr ency</w>
▁201 1</w>
st at▁
▁m il
▁experi ences</w>
ver▁ y</w>
say i▁ng</w>
r ig▁ht</w>
&▁apo▁s ;</w>
▁re ducing</w>
▁Mus eum</w>
qu ir
i ans</w>
fac tion</w>
▁sub jects</w>
▁del iver</w>
▁imm igr
▁O ther</w>
cl ose</w>
▁sp rea
▁discus sed</w>
▁Canad a</w>
stitu tion</w>
f▁or mer</w>
▁ref ug
▁re pres
▁al bum</w>
▁Austral ia</w>
p al</w>
ne▁ ss</w>
f▁ er
foll owi▁ng</w>
▁wh e▁re</w>
▁passeng ers</w>
▁integr ated</w>
▁e x</w>
pu▁ blic</w>
l eft</w>
P▁ ar
M in</w>
▁v ulner
o x</w>
ad or</w>
▁youn ger</w>
▁continu ously</w>
▁H ospital</w>
me an
S ang</w>
▁u l
oper ati▁on</w>
in fl
as k</w>
ang ed</w>
ag re▁
1 6
▁semiconduc tor</w>
▁liv estock</w>
▁E ach</w>
u ts</w>
ou▁ t
diff▁ er
ac ted</w>
▁trad ing</w>
work e▁rs</w>
pr▁ iv
indus t▁ry</w>
L i▁
&ap▁os; ▁s</w>
▁fir m</w>
▁alleg ations</w>
p i▁ng</w>
7 ▁th</w>
▁th er▁e</w>
▁des cri
▁C r
▁2 9</w>
▁wor ker</w>
▁s quare</w>
▁exc essive</w>
▁On ly</w>
▁B as
Y eong
S p▁
2▁ nd</w>
▁cryptocurr ency</w>
g en▁
ent ually</w>
▁war ning</w>
▁b ut
▁S ch
s atis
fi eld</w>
en▁ g
▁view ers</w>
▁F oll
w at▁er</w>
g row▁th</w>
g roup</w>
a▁l ly</w>
▁b oy
▁Exper ts</w>
p a</w>
is cal</w>
as ion</w>
app ear
▁w a▁s</w>
▁men u</w>
▁law suit</w>
▁Ear lier</w>
ong ol
ead quarters</w>
Educ ati▁on</w>
A c▁t</w>
▁t ▁h
▁J esus</w>
serv ice</w>
re▁ sid
im m
2 7</w>
▁ph enomen
▁f ashion</w>
▁P omp
▁L aw
il▁l ion</w>
c▁l ud
b ud
▁u ses</w>
ipp ines</w>
c▁ al</w>
▁t een
▁plac ed</w>
re p▁
▁law s</w>
sti t
p▁ ut</w>
el ec▁
▁histor ical</w>
▁C oll
z be
og ue</w>
i ance</w>
fi▁ re</w>
ev e▁ry</w>
In stitu▁te</w>
▁st and</w>
▁repor ting</w>
▁kinderg artens</w>
▁bal ance</w>
▁T wo</w>
▁M iddle</w>
sur ▁
l e
A s</w>
▁pres entation</w>
▁int elligence</w>
▁i ce</w>
▁con struc
▁cap acity</w>
▁ad d</w>
▁Rep ublic</w>
ul▁ ts</w>
on ally</w>
l▁ aw</w>
cl as
ca▁ me</w>
al l▁y</w>
▁pro per</w>
▁pro b
ti▁ cs</w>
ne▁ ed</w>
ho▁ w</w>
f▁ ac
chil dren</w>
ar e▁as</w>
▁inv est</w>
▁compr ised</w>
▁ch icken</w>
▁approv ed</w>
▁Super visory</w>
p yeong</w>
em pl▁
▁f ish
▁D o
t ;</w>
it▁ ional</w>
fam ily</w>
exp▁ ec▁ted</w>
c▁ on▁
▁se x</w>
▁reflec ted</w>
▁inst all</w>
▁el se</w>
▁ar tificial</w>
pa▁r t</w>
l a▁nd</w>
i able</w>
e▁c k</w>
▁fal se</w>
▁acc um
th o▁se</w>
iz i▁ng</w>
▁draw n</w>
r▁ et
▁bas eball</w>
▁201 0</w>
sh▁ ow</w>
prov i▁de</w>
etropol it▁an</w>
ar▁ t
▁l isten</w>
l▁ ocal</w>
f a▁m
T C</w>
Ass emb▁ly</w>
▁ex cluded</w>
▁dem ocr
▁cou ple</w>
▁Th anks</w>
tic ally</w>
aj or</w>
T ▁h
▁t own</w>
▁g ather</w>
▁Star ting</w>
w▁h ere</w>
wor ks</w>
&apo▁s ;▁s</w>
▁y ea▁r</w>
▁ingredi ents</w>
▁dis tributed</w>
▁conn ected</w>
f ou▁nd</w>
con n
▁regis ter</w>
▁pl astic</w>
▁col ors</w>
▁H otel</w>
ph one</w>
s ong</w>
▁th eater</w>
▁s eas
▁entr ust</w>
▁accep ted</w>
▁In surance</w>
▁2 9th</w>
us eok</w>
thus i
s eason</w>
im pl
d ate</w>
▁sent ence</w>
▁con tr
▁con st
▁c ore</w>
▁altern ative</w>
▁Th ose</w>
ma j
if f</w>
▁viol ation</w>
▁pun ishment</w>
▁Indones ia</w>
pres s</w>
em o▁ny</w>
an s▁
▁dep artments</w>
▁E very
su▁ m
pos ing</w>
me tics</w>
dro gen</w>
as t▁er</w>
S p
▁wat ched</w>
▁c alling</w>
▁J ud
sit u▁
n a▁me</w>
ay▁ ing</w>
i et</w>
f oll▁
con trac
is s▁
a▁b out</w>
D ae</w>
C orpor
▁m emory</w>
▁gu ide</w>
pos ▁ed</w>
p en</w>
og▁ y</w>
j ud▁
ir es</w>
a▁ tive</w>
▁ship ping</w>
A ss▁
un ately</w>
se▁l f</w>
pro jec▁ts</w>
lo b▁al</w>
gr y</w>
ei▁ r</w>
▁sp eech</w>
▁purch ased</w>
▁ar rive</w>
wh e▁n</w>
u ti
th i▁rd</w>
s ea
pl▁ ay</w>
or e
g▁ o</w>
▁Be fore</w>
▁fres h</w>
▁cam p</w>
ur ▁e</w>
t▁ en</w>
is try</w>
e▁n tial</w>
au d</w>
ou g▁h</w>
ne▁ w</w>
l aun
ist an</w>
inter ▁
comm itt▁ee</w>
▁I T</w>
▁exc eed</w>
▁establish ing</w>
us▁ ic</w>
res ear
int▁ er
▁pre fer
▁o r▁
▁mos tly</w>
▁frequ ently</w>
w ee
n ew
de▁ v
coh ol</w>
H an</w>
▁enh ance</w>
f all</w>
air ▁
▁individ uals</w>
▁5 G</w>
s ent
p ass
h▁ ard</w>
ed er
▁techn ical</w>
▁reg ardless</w>
▁n ames</w>
▁c ul
▁ass ociation</w>
▁T em
ub s</w>
ol ic</w>
oc ▁al</w>
ig▁ h</w>
ateg y</w>
r un
ospit als</w>
▁I tal
y▁ le</w>
t▁ ee</w>
b a▁ck</w>
as▁ s
▁Mon day</w>
m as</w>
i▁s it</w>
ill a</w>
b ok</w>
B l
▁deb t</w>
▁G oyang</w>
x im
pro d▁uc
o▁ ther</w>
n a</w>
i▁ ded</w>
fi▁ nd</w>
e▁ ven</w>
Tr ans
▁v eget
▁d rea
▁con ▁
r▁ es▁
let es</w>
ed ding</w>
ang ju</w>
Se o</w>
▁r ich</w>
▁prac tical</w>
▁pl en
is sue</w>
con cer
an am</w>
am m
adv ant
O ffic
▁import ance</w>
▁subsid y</w>
▁at tract</w>
▁Fr iday</w>
▁3 5</w>
su▁p port</w>
su▁ re</w>
indus ▁
g i▁
K yung</w>
▁dist ance</w>
tiv ▁e</w>
includ ing</w>
Ch eong
▁l isted</w>
▁ev ening</w>
und am
d e▁d</w>
▁dead line</w>
sh ow</w>
it ting</w>
a▁ ch</w>
▁reg ard</w>
▁co ast</w>
▁aw are</w>
▁out door</w>
▁judg ed</w>
▁dam ages</w>
▁Analy sts</w>
necess a▁ry</w>
m▁ ore</w>
c ong
ac ▁e</w>
&▁apo▁s ;s</w>
▁t el
▁sent enced</w>
▁lea dership</w>
▁independ ent</w>
t echn▁
p▁ s</w>
l as▁t</w>
an▁ ies</w>
▁tas ks</w>
▁effici ency</w>
▁comm itted</w>
inter e▁st</w>
in k
▁s ister</w>
▁convers ation</w>
un t▁il</w>
ME s</w>
▁Organiz ation</w>
t▁ ax</w>
produc ts</w>
o▁m en</w>
o▁ v
k e▁
itiz en</w>
ev e▁r</w>
a▁ se</w>
L e▁e</w>
L ea
▁en forcement</w>
ou p</w>
m i</w>
▁dr aw</w>
sal ▁es</w>
est▁ ic</w>
bl ▁e</w>
▁transac tion</w>
▁fl ow</w>
un t</w>
e el
▁sh r
▁rece ives</w>
▁prosec utor</w>
▁l ines</w>
ep ren
b▁ an</w>
ac ▁h
▁trans ferred</w>
▁s ave</w>
▁rem ain</w>
▁l evels</w>
▁con cluded</w>
or ation</w>
d ata</w>
▁suspen sion</w>
▁resol ve</w>
▁pus hed</w>
▁finis h</w>
▁f air
▁discus sions</w>
▁applic ations</w>
▁am end
▁J oon</w>
▁G ir
u an</w>
represent ati▁ve</w>
E D</w>
▁s yn
▁r ural</w>
▁pot ential</w>
▁acc used</w>
us ual</w>
m▁ e
id den</w>
distr i▁ct</w>
comm unic
am ily</w>
al o▁ng</w>
3 0
▁reg ulation</w>
▁dest ro
▁deb ate</w>
▁con v
▁comm emor
ut u▁re</w>
o f
for t</w>
fac ▁
c▁ r
ail and</w>
▁join tly</w>
▁c over
▁be hav
▁st ations</w>
▁com posed</w>
▁canc el</w>
qu ar
i o▁us</w>
he▁ re</w>
▁trea ted</w>
▁adver ti
▁Kor eas</w>
wor▁ k</w>
ap ers</w>
G un</w>
per i▁od</w>
offic ▁
n u▁
c o▁r
airper s▁on</w>
▁A p
y▁ eon</w>
s▁ pec
develop ment</w>
▁resid ential</w>
▁equ ipped</w>
▁Mex ico</w>
▁Bri tish</w>
ut ers</w>
h▁ a▁s</w>
f ic</w>
e ived</w>
c er▁
▁run s</w>
▁m ark</w>
▁entr ustment</w>
▁en try</w>
▁ass ault</w>
▁Foll owing</w>
▁A fr
▁syst em
▁sup plem
▁star s</w>
▁l ose</w>
▁I l
▁H eadquarters</w>
o▁ t▁;</w>
ol l</w>
ok yo</w>
l▁ ot</w>
P r
▁rec overy</w>
▁re ply</w>
p eo▁ple</w>
med ic▁al</w>
an y▁
Min▁is▁ try</w>
▁recomm endation</w>
▁pre t
▁m ot
▁fl ex
t w▁
at ched</w>
▁with draw
▁r um
▁r an</w>
▁ear thqu
w ol</w>
o f▁
at tr
ag ement</w>
▁transac tions</w>
fo▁ reign</w>
fer en▁ce</w>
▁disp ute</w>
▁c ▁
▁aim ed</w>
▁Kak ao</w>
pursu a▁nt</w>
m ent▁al</w>
ea s▁ed</w>
b a▁ll</w>
▁th anks</w>
▁enjoy ed</w>
▁ad ding</w>
wh y</w>
on▁ d</w>
iv ision</w>
ant i</w>
ain t
▁see ing</w>
w▁ ere</w>
f▁ it</w>
a▁l so</w>
V iet
▁mus eum</w>
▁X i</w>
▁Chil dren</w>
▁An other</w>
h alf</w>
▁n om
▁cour ses</w>
▁c o▁n
▁K T</w>
prov inci▁al</w>
it ch
e▁c t▁ed</w>
en d▁ed</w>
ar ity</w>
an d▁ed</w>
▁m anner</w>
▁inter ests</w>
w a▁rd</w>
l ive</w>
▁t ired</w>
▁i sland</w>
▁ap p</w>
▁A ud
▁ ju</w>
ul f
proc ess</w>
iber ation</w>
ea▁ ce</w>
d▁r en</w>
▁suspec t</w>
▁mar riage</w>
▁exten ded</w>
ea l▁th</w>
ad ded</w>
S tr
G overn
y a▁ng</w>
sum mit</w>
a▁ ting</w>
▁str ongly</w>
par ed</w>
p ay</w>
i ents</w>
elec tion</w>
Y oo</w>
▁th ous
ro ad
re▁ al</w>
le▁ ad</w>
k ▁e</w>
T a
Ch▁ in
C o▁
▁encour age</w>
▁discipl inary</w>
▁C C
o oting</w>
▁expend iture</w>
▁e co</w>
▁bl ue</w>
sh op</w>
edn esday</w>
Un iversity</w>
▁im posed</w>
▁b u▁t</w>
▁Se ong</w>
p▁ ay</w>
m i▁t</w>
c▁ omm
B usan</w>
2 8</w>
▁ob tained</w>
▁W est</w>
ta i▁n
a▁t a</w>
▁newsp aper</w>
▁C ar
tric ts</w>
sp e▁c
or t▁h</w>
l ate</w>
dec id▁ed</w>
cons ult
at ures</w>
G▁ yeong
▁shar p</w>
▁fl o
row n</w>
p ati
ent a▁ry</w>
▁wor ▁
▁sal ary</w>
▁G eum
▁B aek
per form▁
me a▁ns</w>
i▁ nd</w>
inc es</w>
h ou▁se</w>
P er
▁min ute</w>
▁fl owers</w>
▁ess ential</w>
ro▁ up</w>
as ters</w>
G y▁
Chung ch
▁resc ue</w>
▁fin ding</w>
p op</w>
okes man</w>
it or
id e▁d</w>
fr on
et in▁g</w>
chit ec
▁stat utes</w>
s afe▁ty</w>
p ur▁
ex per▁
b i
Se ong
▁r oute</w>
▁quanti ty</w>
▁bro ken</w>
▁S aturday</w>
co▁m m
a▁ ke</w>
or ig
e▁ ad</w>
▁suspic ion</w>
oh ang</w>
be▁c▁ ause</w>
M ar▁
▁subpar agraph</w>
▁out standing</w>
▁m ur
▁de ems</w>
▁App le</w>
res ear▁ch</w>
e▁x p
e ver
and al</w>
▁tr uth</w>
▁judg ment</w>
▁grad es</w>
▁dr unk</w>
▁arti cles</w>
▁Rep .</w>
is ure</w>
emb ers</w>
a▁ ve</w>
O ffice</w>
▁vulner able</w>
▁id eas</w>
▁certif ication</w>
▁applic ant</w>
t▁ im
o▁n ly</w>
ci▁ l</w>
▁doc tor</w>
u▁n e</w>
re▁ as
e▁r ▁e</w>
at ri
▁vid eos</w>
▁un i
▁Wh ich</w>
▁S ub
▁En ergy</w>
▁200 9</w>
receiv ▁ed</w>
n▁ el</w>
▁un d▁er</w>
▁s etting</w>
▁car rying</w>
▁atten ding</w>
s▁h a▁ll</w>
epren e
aud i</w>
ad diti
▁l oved</w>
▁ev entually</w>
d▁ le</w>
▁stor age</w>
▁compet ent</w>
tak ▁e</w>
t en▁
id enti
▁ma il</w>
▁del icious</w>
▁P eace</w>
st o▁ry</w>
ri er</w>
res sed</w>
ot▁ her</w>
in▁ al</w>
ac ts</w>
S▁ .</w>
▁min im
▁Med ical</w>
w ise</w>
w a▁r
b eg▁
▁g olf</w>
▁b ull
▁On ce</w>
u▁ ce</w>
s al</w>
n eed</w>
l a▁te</w>
g ang</w>
Y oon</w>
Y ong</w>
3 1</w>
▁pro spec
▁kinderg arten</w>
▁hel ps</w>
▁corpor ations</w>
o▁w s</w>
manag▁ ement</w>
k▁ er</w>
for ei▁gn</w>
d om▁
I m
▁mod els</w>
▁lat est</w>
tea▁ m</w>
cr aft</w>
▁propor tion</w>
▁Phil ippines</w>
▁Mot ors</w>
si x</w>
s oci
perc e▁nt</w>
adem y</w>
▁p sych
▁hom es</w>
▁bel ong
ub▁ lic</w>
t ec
pre▁ ss</w>
employ ment</w>
com▁ m
▁tr ack</w>
▁str ess</w>
▁f ▁
▁confir mation</w>
t ar
fun c
▁s tic
▁com fortable</w>
▁attrac ting</w>
u al▁ly</w>
par tic▁
m▁ s</w>
in te▁r
▁p utting</w>
▁lic ense</w>
stit utes</w>
s epar
o▁ u</w>
U n▁
▁politi cs</w>
▁dis hes</w>
▁G ames</w>
our self</w>
id▁ ent</w>
f▁ orm
▁ran ked</w>
▁b ic
▁20 s</w>
y o▁ng</w>
u▁m p</w>
r em▁
och o</w>
f▁ or▁
e▁ st▁
▁sl ightly</w>
▁s inc
▁mar ried</w>
▁c entury</w>
t og▁
l▁ i
d▁ i
▁rap id</w>
▁plan e</w>
st a▁r
d an▁ce</w>
ag▁ ainst</w>
2 5
19 ▁
▁over come</w>
▁announ ce</w>
▁Pro ject</w>
um▁ an</w>
▁H er
w▁h at</w>
f ying</w>
2 00</w>
▁m ob
sel ect▁ed</w>
▁lawmak er</w>
▁eff ec
▁don ation</w>
▁b ▁y</w>
▁ac commod
s ol▁
▁sp ot</w>
▁sh ot</w>
▁ex tent</w>
pur ch
op ▁e</w>
grow th</w>
ar eness</w>
sur y</w>
reg ul▁ar</w>
per iod</w>
m other</w>
▁m ayor</w>
▁l itigation</w>
▁fail ure</w>
▁Chr ist
investig ation</w>
c ar▁
ash ing
▁f ight</w>
▁emerg ing</w>
▁concentr ation</w>
▁c enter
techn olo▁gy</w>
st▁ ud
ch a▁r
▁st ar</w>
▁s eek</w>
▁p ort</w>
▁mix ed</w>
▁Th ree</w>
▁Sing er</w>
▁C ong
▁1 0,000</w>
ib ility</w>
Jap▁ an</w>
C▁h o</w>
▁fir ms</w>
t ingu
exper ien▁ce</w>
es s▁ed</w>
as ts</w>
▁p ower
▁fea ture</w>
▁bott om</w>
▁Pomp eo</w>
▁2 ,
v e▁ry</w>
t▁ eam</w>
K y
C l
▁predic t</w>
▁happ en</w>
▁child care</w>
▁S e</w>
pr▁ om
in o</w>
ell o</w>
Sam su▁ng</w>
▁poll ution</w>
▁inconven ience</w>
▁affili ated</w>
v i▁ng</w>
t▁ ern
R e▁
H ong</w>
▁w ages</w>
▁sur pr
▁rea dy</w>
▁dem anded</w>
▁att ack</w>
i▁ tion</w>
i▁ sh
c anc
ag g
ac coun
Res ear▁ch</w>
▁hol idays</w>
▁comm ents</w>
▁brief ing</w>
▁ag ed</w>
▁K OS
v o
pen s
h▁ ere</w>
S un</w>
▁bus es</w>
▁Hall yu</w>
w▁ in</w>
l ove</w>
Gyeong g▁i</w>
4 5</w>
▁r ule</w>
▁prem ium</w>
▁allow ances</w>
▁R yu</w>
ch e▁
ad y</w>
In t
▁s af
▁o kay</w>
▁B aek</w>
p▁ eopl▁e</w>
ou ldn</w>
m▁ ake</w>
lis t</w>
ex ec
S pec
▁sp ea
▁Y ouT
▁Cheon an</w>
u tions</w>
mak er</w>
g▁ o
S outh</w>
K▁or e▁a</w>
▁real ize</w>
▁o bl
▁natur ally</w>
▁bl ock</w>
▁Econom y</w>
z en</w>
im b
c▁ om▁
c ulture</w>
D e▁
▁ab s
▁In d
uc tion</w>
p un
on ce</w>
em ical</w>
▁main tained</w>
▁hel ped</w>
w▁h y</w>
shi▁ p</w>
oc king</w>
is▁ ts</w>
in▁ ue</w>
h w▁an</w>
an t▁s</w>
A s▁
▁pri ority</w>
▁R el
s▁ ity</w>
me▁ ans</w>
clus ion</w>
▁re fer
▁proced ure</w>
▁pas sing</w>
▁gr ant</w>
▁Pyeong taek</w>
un j
tra▁ de</w>
e t▁ed</w>
av el</w>
ab led</w>
W or▁ld</w>
▁su itable</w>
▁conserv ative</w>
▁an x
h old</w>
g▁ lobal</w>
▁phenomen on</w>
um ed</w>
aw ei</w>
atten d▁ed</w>
▁wea k
▁re b
▁pro hib
▁fin ance</w>
▁complain t</w>
s ocial</w>
P▁ op</w>
▁h ospitals</w>
t▁w een</w>
p .</w>
d el▁
J u▁ng</w>
I N
201 9</w>
▁d ▁
▁app ears</w>
▁M y
th i▁ng</w>
pr o▁m
o▁u gh</w>
i▁n g
expres s▁ed</w>
▁val ues</w>
▁Sun day</w>
y▁ o</w>
resp on▁
e▁c ted</w>
armac eu
P yeong
F ac
▁t yphoon</w>
▁b ed</w>
v ious</w>
g▁ ood</w>
e b</w>
diff▁ ic▁
K ang</w>
▁w asn</w>
▁identi fied</w>
▁ag ree</w>
t▁ ak
r ad
perform ance</w>
oc▁ r
o b▁
ec onomy</w>
L oc▁al</w>
▁cl in
▁c ooking</w>
▁Y eon
▁Se ok</w>
y ed</w>
n atur
hel▁ d</w>
fr o▁nt</w>
on able</w>
nam ese</w>
eff ec
at e▁ly</w>
▁w oul▁d</w>
▁sp irit</w>
▁exper t</w>
▁emerg ed</w>
▁disclos ure</w>
▁attrac ted</w>
▁am id</w>
▁ac compan
▁M in
m▁ ark
kn own</w>
it es</w>
foll owing</w>
al i
▁ch e
▁M ongol
▁Bo ard</w>
pr in
is su▁
f eel</w>
N▁ ational</w>
3 5</w>
▁N ews</w>
▁K o</w>
serv ▁
e▁ ld</w>
clud e</w>
▁bu ying</w>
▁ag ing</w>
▁En ter
ugg ish</w>
qu esti
on l▁y</w>
i eld</w>
exc e▁
a▁ tio▁ns</w>
ai▁r m▁an</w>
; ▁
▁S audi</w>
w a▁y</w>
os ▁e</w>
od ies</w>
bo▁ th</w>
ati v▁e</w>
Gyeong sang
▁fig ures</w>
v i▁c
ol es
m u▁ch</w>
m att
il ot</w>
g i▁ve</w>
chil dr▁en</w>
ac h▁ed</w>
▁exec ution</w>
▁canc eled</w>
▁Braz il</w>
▁A ut
s ized</w>
f air</w>
en▁ ds</w>
▁strength ening</w>
▁19 7
u▁ ed</w>
r ban</w>
p eopl▁e</w>
e ti▁
as s▁
▁he▁ ad</w>
▁car eful</w>
pr i▁ce</w>
ic▁ y</w>
f arm
ent ally</w>
d ea▁
am ▁es</w>
F A</w>
2 6</w>
▁oper ators</w>
▁comp ly</w>
si on
ro▁ le</w>
activ iti▁es</w>
▁sit u
▁l ov
▁car ds</w>
▁c l▁
fo▁r mer</w>
an aly
▁h urt</w>
▁go als</w>
▁c ool</w>
▁Ko▁ rea</w>
y in▁g</w>
s onal</w>
pr▁iv ate</w>
ol den</w>
unic ations</w>
pl a▁n
o k▁
f av
▁t ea</w>
▁rul ed</w>
promo▁ te</w>
art ups</w>
▁contrac ts</w>
▁ba▁ sed</w>
▁b ags</w>
▁: :</w>
▁200 8</w>
t▁h ey</w>
p h▁
ij ing</w>
ea l▁ed</w>
T r▁
0 .
▁organiz e</w>
▁auth or</w>
▁D ynasty</w>
t▁h ▁e</w>
t om
per ty</w>
m▁ et</w>
ind▁ us
Pres▁ ident</w>
N a▁
▁offic ially</w>
▁cons ulting</w>
▁Han wha</w>
▁F ilm</w>
ust ain
ro▁ u
icul um</w>
e▁r ed</w>
Y ang</w>
Je ju</w>
▁st atistics</w>
▁fr anch
▁H ae</w>
me▁ et</w>
i▁ re</w>
c▁ rea
c▁ ase</w>
ari ffs</w>
E conom
Chin e▁se</w>
▁stud ies</w>
tor ▁s</w>
sum er</w>
li o▁n</w>
j o</w>
i os
h um
et▁ y</w>
et te</w>
ed y</w>
ed om</w>
C ou▁rt</w>
▁l i▁
▁h owever</w>
▁claim s</w>
▁Jeoll a</w>
hous i▁ng</w>
a f▁f
P ri▁
▁re ward</w>
▁offer ed</w>
▁m aster</w>
▁jud icial</w>
▁coll abor
▁P yongyang</w>
ti cles</w>
in e
an ak</w>
activ ▁
▁ep is
▁Christi an</w>
s cor
c a▁r
▁dis posal</w>
▁Th ailand</w>
rel ev
hea l▁th</w>
▁unf air</w>
▁perf ect</w>
▁he▁ ld</w>
▁J oo</w>
d id</w>
com p▁l
b ack
Aff ai▁rs</w>
▁d rive</w>
▁af ter
op en</w>
Comm ittee</w>
&▁a p▁os;s</w>
▁p eti
▁mon it
▁guid elines</w>
▁f oot</w>
st ore</w>
p ot
o▁ ur
j oi▁nt</w>
er ea
bir th</w>
6 5</w>
▁rem ov
▁dri vers</w>
▁b ▁
▁Olymp ics</w>
▁Chungch eong</w>
▁A ll
sel ▁
proc e▁ss</w>
ho▁ on</w>
er▁ gy</w>
al ent</w>
a it</w>
F ound
▁rem arks</w>
▁g un</w>
▁Tem ple</w>
▁H o</w>
▁ at▁ion</w>
port ers</w>
h▁ it</w>
b on</w>
av ing</w>
W h
3▁ rd</w>
▁obl ig
▁kn ew</w>
▁effici ently</w>
▁ath letes</w>
▁ab▁ out</w>
▁C ivil</w>
z ▁ed</w>
op ol
comp reh
av o
▁lec tures</w>
▁inv ited</w>
▁institu te</w>
▁cos metics</w>
▁con tributed</w>
▁achiev ed</w>
c ultu▁re</w>
activ ities</w>
▁im ported</w>
x es</w>
m il
iv i▁ng</w>
b y
H o▁ng</w>
▁pat h</w>
▁aw arded</w>
▁Sh im</w>
m ob
ic▁ le</w>
f ar</w>
e b▁
V ice</w>
3 2</w>
▁for um</w>
▁b ills</w>
▁V en
▁D ru
▁ ati▁on</w>
on er</w>
det erm
at e▁
an▁ s
Ch▁in ese</w>
▁sec tors</w>
▁W estern</w>
▁Agric ultural</w>
w elfa▁re</w>
o▁r th</w>
ordin ate</w>
i▁ se</w>
am ework</w>
▁ref ers</w>
▁re organiz
▁m outh</w>
▁app eal</w>
me▁ d
ig ▁n</w>
a ight</w>
▁schol ar
▁explan ation</w>
▁conven ient</w>
▁Pa ju</w>
u▁ es</w>
ti ous</w>
matt e▁rs</w>
ip e</w>
g ence</w>
ang ing</w>
air ▁s</w>
us h
i▁n gs</w>
d▁ ec
an der</w>
▁wor ry</w>
▁hy drogen</w>
▁d ea
w age</w>
t▁ ers</w>
ti▁ cle</w>
st y▁le</w>
ner ship</w>
ess ors</w>
as an</w>
T A</w>
M▁ ay</w>
▁wh enever</w>
▁n early</w>
▁di verse</w>
▁T eam</w>
▁Ar ts</w>
on ial</w>
ach ing</w>
D ef
1▁ 00</w>
▁perform ing</w>
ic ed</w>
2 9</w>
wor d</w>
s▁ um
og r
in▁ g
for ▁e</w>
1▁ 0</w>
▁parliam entary</w>
▁o ▁
▁mus ical</w>
▁ex posed</w>
v ill
l ong
i ers</w>
ea vy</w>
▁or▁ der</w>
▁f ifth</w>
▁a id</w>
▁E very</w>
y▁ u</w>
re▁ ad</w>
mir ae</w>
comm un
aug ur
▁sprea ding</w>
▁recogn ition</w>
▁grow n</w>
n etw
e ys</w>
▁cooper ative</w>
▁c overed</w>
▁benef it</w>
▁be er</w>
z es</w>
jo▁ bs</w>
gr▁ am</w>
▁Gang neung</w>
h e
g y
f it</w>
e ducation</w>
al ize</w>
▁won der</w>
▁govern ed</w>
▁differ ences</w>
▁H ere</w>
re ds</w>
ou s▁
m at▁ch</w>
invest me▁nt</w>
diff▁ic▁ ult</w>
bass ador</w>
▁sw eet</w>
▁sk y</w>
▁pre gn
▁l ux
z z
tr aini▁ng</w>
sub sid
pl a▁ns</w>
ed eral</w>
▁orig inally</w>
▁cro ss
▁amend ment</w>
▁G or
▁D oes</w>
sign ific
rec ent▁ly</w>
ge▁n eral</w>
bor n</w>
ar r▁
201 6</w>
▁v i▁sit</w>
▁j ustice</w>
▁aw areness</w>
▁adv ice</w>
tr ea
s ee
prov ince</w>
pr ice</w>
j e▁c
S T</w>
H igh</w>
A ir
9 0</w>
▁th in▁k</w>
▁em b
ow e▁r</w>
il at
c a▁l
b▁ ed</w>
201 7</w>
▁th ank</w>
▁Viet namese</w>
s un▁g</w>
s .</w>
la▁ ted</w>
ay in▁g</w>
▁O kay</w>
r ▁e</w>
for ce</w>
adminis tr▁
▁disp atched</w>
op▁ en</w>
i▁ r</w>
i e▁n
h on
g▁ row
▁sl ow</w>
▁s un</w>
▁m ill
▁g ain</w>
▁S NS</w>
▁&ap▁os ;</w>
s ay</w>
ir ation</w>
az a</w>
at▁ ing</w>
H ee</w>
▁3 1st</w>
w▁h ile</w>
uc ks</w>
play ▁ed</w>
p aid</w>
nam ent</w>
e▁l op
▁P as
sti t▁
or▁ ts</w>
l ov
Or d
▁str ike</w>
▁f arm</w>
▁dec laration</w>
w er</w>
ill eg
c amp
at u▁re</w>
▁public ly</w>
▁crea tive</w>
i▁t tee</w>
g ive</w>
enti ment</w>
ap o</w>
Je oll
ti le</w>
om b</w>
i▁ d</w>
bas ed</w>
S ing
M a▁r
▁comb ined</w>
▁Pen sion</w>
▁C ol
under▁ st
pres i▁d
ib▁ le</w>
b al
as ted</w>
▁sur face</w>
▁J o</w>
ym ore</w>
ra▁ p
pol ice</w>
mon ey</w>
is h▁ed</w>
b e▁rs</w>
▁s ear
▁dro pped</w>
relev a▁nt</w>
ol s</w>
em▁ ber</w>
e e▁d</w>
crim ination</w>
b e▁r</w>
D irec
▁m ▁
▁cont aining</w>
o d▁
l ab▁or</w>
in ati▁on</w>
▁t ests</w>
▁l ease</w>
▁ac ting</w>
▁J un</w>
▁H ar
ther wise</w>
g▁ er</w>
enc ing</w>
ea▁ d</w>
K i</w>
▁wor se</w>
▁resear chers</w>
▁requ ests</w>
▁ad ults</w>
st u▁
m e▁n
f▁ r
ar eas</w>
▁smo oth</w>
▁im ages</w>
▁dr ugs</w>
▁dec or
▁alleg ed</w>
▁al cohol</w>
▁I CT</w>
▁G iven</w>
▁20 20</w>
the▁ m</w>
o▁r m</w>
mi▁ ss
l abor</w>
in come</w>
b enef
at in▁g</w>
ad es</w>
▁m e▁
▁inv ested</w>
▁ass et</w>
▁G eun</w>
zbe k
tiv ▁
su gg
o▁ ve</w>
manag ement</w>
diffic u▁lt</w>
c▁ ar</w>
P▁ rov
▁far ms</w>
▁A si
reg is
ol▁ ds</w>
▁canc ell
wor king</w>
v e▁n
tim es</w>
rec e▁
p▁ol icy</w>
l i▁ng</w>
it▁ e</w>
▁supervis ion</w>
▁low est</w>
▁inev itable</w>
▁e sc
u▁ sed</w>
oc ated</w>
incl▁ud i▁ng</w>
in s▁
id ity</w>
ho▁ ur</w>
c and
a▁n d
ann i▁ng</w>
Y ong
C ooper
4 ▁th</w>
▁shar ply</w>
▁pic k</w>
▁pay ments</w>
▁i gn
▁competi tive</w>
stand i▁ng</w>
se▁ ok</w>
ou▁r s</w>
k il
hy e</w>
d▁ es
bo▁ dy</w>
▁s igning</w>
▁purch asing</w>
▁det ected</w>
w it▁h
stud ▁
is ition</w>
e on▁g</w>
▁t ariffs</w>
▁respon dents</w>
▁no tic
▁clos ely</w>
▁car efully</w>
▁b and</w>
▁G al
y on▁g</w>
won do</w>
l ead
increa s▁ed</w>
▁tro ops</w>
wor▁ ld</w>
or r▁y</w>
or d▁
m is▁
l▁ s</w>
enter pris
administr ati▁on</w>
▁sh oes</w>
▁C ooper
g lob▁al</w>
ens us</w>
ath e▁r</w>
O f▁f
&▁apos; t</w>
▁un cer
▁teen agers</w>
▁innov ative</w>
▁all owing</w>
f▁ ri
a▁c y</w>
▁th▁ ere</w>
▁su icide</w>
u▁ ps</w>
liv i▁ng</w>
jus ▁t</w>
i▁ st▁
cl aim
bec o▁me</w>
I T</w>
▁w▁ ith</w>
▁sem ester</w>
▁G lobal</w>
p m</w>
lik ▁e</w>
il s</w>
ig n▁ed</w>
▁smartph ones</w>
▁m eals</w>
um i</w>
iz ▁ation</w>
dom est▁ic</w>
con sec
atiz ation</w>
R S</w>
I S</w>
▁t elecomm
▁d ry</w>
▁br ands</w>
▁b an
▁G o</w>
urs day</w>
ind ivid
im ming</w>
▁listen ing</w>
▁fl ower</w>
▁big ger</w>
t a</w>
I ▁t</w>
▁w ake</w>
▁vo ices</w>
▁d ogs</w>
▁T okyo</w>
▁Con struction</w>
▁2 5
str o▁ng</w>
I C
▁fac tor</w>
▁ ic</w>
si l</w>
qu e</w>
l▁ ing</w>
l igh
f ail
ch ang</w>
▁su it</w>
▁hon or
▁g ained</w>
▁b onds</w>
▁S y
▁10 0,000</w>
▁ver sion</w>
▁requir ements</w>
▁pen alty</w>
▁H ak</w>
su▁ pp
ong no</w>
ax y</w>
at▁ or</w>
a ised</w>
▁pr ime</w>
▁initi al</w>
▁fe els</w>
▁compl exes</w>
i e▁d</w>
e ive</w>
▁wh om</w>
▁offer ing</w>
▁earthqu ake</w>
▁commer ci
▁Ch useok</w>
st a▁
e▁ al
es▁ ts</w>
b▁ efo▁re</w>
N ational</w>
20▁1 8</w>
▁y ourself</w>
▁p age</w>
▁confl icts</w>
▁b ▁e</w>
▁adverti sing</w>
▁Inv estment</w>
spec ial
gr am</w>
at h</w>
C up</w>
3 00</w>
▁us age</w>
▁s ad</w>
▁p ▁
▁m and
▁emp ty</w>
il d
ici ary</w>
d▁ idn</w>
ch▁ ang
c an
ac tive</w>
Sh in</w>
▁Christ mas</w>
j obs</w>
ci t▁
b▁ as
app ed</w>
C or
▁w o▁uld</w>
▁ref er</w>
▁oper ations</w>
▁in form</w>
▁In depend
und reds</w>
t▁ ions</w>
re▁ me</w>
ok i▁ng</w>
n et</w>
n ecessary</w>
is s</w>
i ary</w>
eng th</w>
ee d▁ed</w>
▁expres sion</w>
▁J ang
ta▁ e</w>
o il</w>
a▁ ss
▁sl uggish</w>
▁f ear</w>
▁exam ine</w>
▁chall enge</w>
w ood</w>
ti se</w>
sa▁ ng</w>
op e▁r
i ously</w>
h me▁nt</w>
h and
ap prov
▁s am
▁r iver</w>
▁exper im
▁det ail</w>
▁d ed
▁cul tiv
▁G reen</w>
ro l</w>
ough ly</w>
m▁ ed
m om
ic e▁s</w>
con stru▁c
▁v ess
▁S MEs</w>
▁N ext</w>
t ings</w>
so▁ on</w>
rec ogn
i ums</w>
ev▁ el
M W</w>
G o▁
▁g rew</w>
▁cor ruption</w>
▁conf idence</w>
▁apprec iate</w>
▁R ights</w>
ult an
t o
re f▁
po▁ se</w>
osp ital
ne▁ ar</w>
ho▁ ld</w>
▁sup ports</w>
▁evalu ated</w>
▁ar my</w>
▁ac ts</w>
uc le▁
tak i▁ng</w>
f a▁ns</w>
en ▁s</w>
activ e▁ly</w>
▁w il▁l</w>
▁dis tricts</w>
▁cont ain
▁charg ed</w>
▁ch ose</w>
▁M e
t▁ io▁n</w>
tw▁ o</w>
p o
f am▁
b▁ ack</w>
app▁ ly</w>
Gye on▁g
▁vill ages</w>
▁un less</w>
▁sim ply</w>
tu p</w>
j eon</w>
emb e▁r</w>
c ol▁
az on</w>
ashing ton</w>
am▁p ;</w>
Sup po▁rt</w>
▁t opic</w>
▁r out
thr▁ ough</w>
o▁ ffice</w>
ou▁ ng</w>
med ia</w>
if ying</w>
ha▁ v▁e</w>
enti a</w>
Sa▁m sung</w>
A si▁an</w>
&▁a pos▁;s</w>
▁vic tory</w>
▁star ts</w>
▁relig ious</w>
▁clean ing</w>
▁L aw</w>
▁Gr and</w>
▁C itizens</w>
▁3 0s</w>
ret u▁r
m et</w>
ll ed</w>
ic ▁s</w>
a ud▁
▁pack age</w>
▁com position</w>
▁ ted</w>
succ ess
o thing</w>
ar ian</w>
appoin t▁ed</w>
a th▁er</w>
▁t ons</w>
▁sud den</w>
▁spec ified</w>
▁eng aged</w>
ou sing</w>
m ark</w>
ic i▁es</w>
g▁ ue</w>
ell a</w>
▁su ffer</w>
▁law yer</w>
▁fu el</w>
▁arti st</w>
▁An y</w>
▁0 .
st a▁te</w>
j ae</w>
e very
ci en▁ce</w>
cer emo▁ny</w>
b oth</w>
us ▁t</w>
tur ▁es</w>
s▁h ip</w>
re▁ qu
poli▁ tical</w>
m▁ en</w>
M e▁
▁wind ow</w>
▁r aw</w>
▁cons ists</w>
▁ch ar
mat er
N ov
▁ven ture</w>
▁fi ref
▁Hw as
ten ing</w>
t o▁ry</w>
t alk</w>
particip at▁ed</w>
o▁ ver</w>
e ffici
at▁ ive</w>
S m
▁pret ty</w>
▁ill eg
▁exclus ive</w>
▁beg un</w>
s ince</w>
re▁ ase</w>
pr▁ il</w>
mil▁ itary</w>
k e▁d</w>
T X</w>
▁ab ou▁t</w>
▁P ohang</w>
▁Mus ic</w>
▁C ap
v ar▁
s ing▁
it e▁d</w>
h eal
g▁ u
ef s</w>
d ir▁ec
com fortable</w>
com b
bl ed</w>
▁tal ent</w>
▁mist ake</w>
▁en thusi
▁diplom atic</w>
▁at titude</w>
▁YouT ube</w>
▁Wh o</w>
v ac
sus pec
prof essi
cr imin
cl ass</w>
ay i▁ng</w>
W on</w>
▁f iscal</w>
▁communic ate</w>
▁T rea
▁Comp any</w>
u ting</w>
ot▁ ed</w>
all en</w>
ac tion</w>
▁m om</w>
▁d ong</w>
st age</w>
me th
ist ant</w>
e▁ me▁nt</w>
ch eo▁n</w>
a▁ tion▁s</w>
a ff▁
▁st abil
▁real ized</w>
▁prom ised</w>
▁eas ier</w>
▁e ase</w>
▁Sec urities</w>
ob by</w>
i▁ zed</w>
f re
e▁r ing</w>
▁grea ter</w>
▁d rew</w>
▁F ree</w>
g e▁t
Intern ation▁al</w>
E un</w>
▁suspic ions</w>
▁scor ed</w>
▁intro ducing</w>
▁decl ared</w>
ul ati▁on</w>
u to</w>
p▁ ol▁
▁rel ation</w>
▁m ass</w>
▁fac ts</w>
▁br ain</w>
▁bl ocked</w>
▁S ang
z ▁
u ted</w>
si▁ ble</w>
establis h▁ed</w>
E l
▁un like</w>
▁e ither</w>
▁autom atically</w>
▁Gyeong nam</w>
▁5 2</w>
res ol
nu▁ clear</w>
iz ▁e</w>
fo▁r m
d eg
b us</w>
▁c af
ti on▁al</w>
p oint</w>
on ▁ed</w>
estiv als</w>
1 7
s ome
ough ts</w>
ho▁ pe</w>
gener ati▁on</w>
d on</w>
b ad</w>
Com p
A I</w>
▁concentr ated</w>
▁c ode</w>
tr eat
si▁ k</w>
r a</w>
pre vi
pa▁ id</w>
ol og▁y</w>
co▁n t
bus i▁ness</w>
▁trav eling</w>
▁passeng er</w>
▁fe el
▁disc overed</w>
▁curr iculum</w>
▁Pol icy</w>
▁Hu awei</w>
▁Agric ulture</w>
w e▁nt</w>
w ant</w>
te▁ nd</w>
par ▁ed</w>
oo thly</w>
no▁ w</w>
iti v
g u▁n</w>
al▁ ity</w>
S ou
Prov i▁nce</w>
▁sec urities</w>
▁lea ds</w>
▁f undam
▁d ark</w>
▁b re
te▁ e</w>
res taur
os en</w>
op positi▁on</w>
f ul▁
ar e▁a</w>
M y</w>
Kor ea▁n</w>
B l▁
▁los ses</w>
▁exten sion</w>
▁d ivid
▁Malay sia</w>
▁&a▁ pos;</w>
sh ▁e</w>
serv ic▁es</w>
prov in▁ce</w>
or ▁ed</w>
ic a▁l</w>
as▁ te</w>
▁im ag
▁gu ess</w>
▁fam iliar</w>
▁dep ar
we▁ l
rou g▁h</w>
r at
de▁ f
d a▁ta</w>
c rea▁
b ooks</w>
air ed</w>
▁prov inces</w>
▁p ilot</w>
▁g one</w>
▁fos ter</w>
▁continu ous</w>
▁b attle</w>
▁M i</w>
▁H ello</w>
le▁ ad
▁inc en
p▁ eo▁ple</w>
o tions</w>
im pro▁ve</w>
f ind</w>
J une</w>
Gwang ▁ju</w>
▁spen ding</w>
▁sh ooting</w>
▁replac ed</w>
▁pus hing</w>
w a▁ge</w>
s▁ ub
sh ow▁ed</w>
s l▁
pa▁ st</w>
o▁ ffic
it ations</w>
ea▁ s</w>
d▁ em
ci a▁l</w>
▁wh e▁n</w>
ti s</w>
s▁ erv
se▁r vice</w>
se▁ as</w>
isten ce</w>
ig ar
herein a▁ft▁er</w>
curr e▁nt</w>
T▁ r
Pr▁ ov
M us
▁r ide</w>
▁mut ual</w>
▁R oad</w>
ific ations</w>
b▁ ig</w>
a th▁
▁manag ing</w>
▁man ip
s ett
r u▁n
int e▁n
i o▁n
d es▁
co▁ st</w>
con d</w>
al▁ ls</w>
▁tal ked</w>
▁fi erce</w>
▁c o▁m
▁Ta x</w>
▁P ower</w>
ri ers</w>
re ti
ar a</w>
Gen er▁al</w>
Coun cil</w>
C o</w>
▁monit oring</w>
▁los ing</w>
▁e cos
▁custom ized</w>
▁W o
▁H on
▁Ex cept</w>
▁Ab ove</w>
star t▁ed</w>
doc um
cu▁r rent</w>
al ist</w>
OS CO</w>
▁trans par
▁t esti
▁respon ded</w>
▁chall eng
▁ad just</w>
pr▁ oc
pos▁ ;
l os
j a</w>
gu id
g n</w>
f ather</w>
▁st ability</w>
▁sp aces</w>
▁sh ow
▁comb ination</w>
m▁ in
mak ▁e</w>
m m</w>
fi▁ l
c e▁d</w>
a▁n ts</w>
Prov▁ ince</w>
K▁ or▁
C ente▁r</w>
▁y ellow</w>
▁or dinance</w>
▁in quir
▁b all
v▁ al</w>
ri f
me et</w>
ic op
fi e▁ld</w>
f ee▁
O h</w>
N am</w>
▁st eel</w>
▁recogn ize</w>
▁exc av
we▁ ek</w>
st▁ it
er ship</w>
d ang</w>
aff ai▁rs</w>
ad ministration</w>
P I</w>
2 8
▁p ort
▁lea ves</w>
l ic
form er</w>
employ me▁nt</w>
com es</w>
an im
Un ive▁r
B us
▁re place</w>
▁r are</w>
▁k imchi</w>
▁invest ments</w>
▁deg ree</w>
▁V arious</w>
▁D ivision</w>
s▁ ix</w>
re▁ ss</w>
res p▁
o▁ ok</w>
is ti▁ng</w>
h▁ igh
▁usu al</w>
▁sm all
▁ab and
▁M ad
▁An san</w>
▁A s
ter ▁ed</w>
o king</w>
m inal</w>
k er▁s</w>
j oy</w>
ion a▁l</w>
fac ilities</w>
f ans</w>
▁sec uring</w>
▁no ise</w>
▁multi ple</w>
▁con tribution</w>
▁ann ually</w>
sh▁ all</w>
f a▁ce</w>
e▁r t</w>
▁h iring</w>
▁e th
▁c itizen</w>
▁c atch</w>
u▁n der</w>
rel ated</w>
r ai▁
dr aw</w>
Or ganiz
▁re fr
▁m unicipal</w>
▁investig ated</w>
▁bo at</w>
▁Nav er</w>
rec ru
particip a▁te</w>
in▁ ess</w>
e the▁r</w>
ay be</w>
au ce</w>
ain t</w>
ach iev
20▁ 0
▁j uven
▁expl os
▁earn est</w>
▁bor der</w>
▁Tur key</w>
▁Par ticip
▁ d</w>
st e▁
q▁ u▁
op eni▁ng</w>
n eigh
it ch</w>
f oun
b▁ le</w>
b udget</w>
J ang</w>
▁un usual</w>
wit ter</w>
requ ir
g u▁
et▁ ing</w>
bo x</w>
b ors</w>
J eong</w>
C▁ ity</w>
▁tou ch</w>
▁sh ops</w>
▁fac ing</w>
▁dismis sed</w>
w a▁ys</w>
sib ili▁ty</w>
es ▁e</w>
▁v acc
▁collap se</w>
▁N ex
▁L ike</w>
▁6 5</w>
to▁ o</w>
th▁ a▁t</w>
s▁ ch
spec ▁
in ations</w>
igh ters</w>
gover n▁or</w>
b▁e ing</w>
a▁n n
al l▁ed</w>
▁c ross</w>
▁Y un</w>
ver al</w>
t▁ ic</w>
se o▁k</w>
p .m.</w>
h ot</w>
en c▁y</w>
ec on▁
ea▁ sed</w>
dis tribu
coun t▁ry</w>
am ong</w>
J▁ ap
▁y e▁ar</w>
▁wid ely</w>
▁sp ons
▁retur ning</w>
▁g r▁
▁M r
▁H ang
▁Ch a</w>
▁3 2</w>
▁1 50</w>
t▁ e▁d</w>
tur n</w>
tor ies</w>
rel ation
produc ti▁on</w>
pp ing</w>
m▁ er</w>
l▁ evel</w>
int▁ ern
Pa▁r ty</w>
P resi▁d
O per
▁mis s</w>
ci ent</w>
2 6
▁p op</w>
▁c afe</w>
▁Seong nam</w>
▁M embers</w>
▁Cheong ju</w>
ut▁ es</w>
re▁l ated</w>
h am</w>
▁v oting</w>
▁Be ijing</w>
▁200 7</w>
s▁h all</w>
r▁eal ly</w>
in et</w>
ea▁ m</w>
con fl
c iv
b ank</w>
D iv
▁hand ling</w>
v▁ ey</w>
s a▁n</w>
i▁l ity</w>
e▁ ll</w>
d a▁
c iv▁il</w>
aw n</w>
▁s u▁
▁plen ary</w>
▁hand ed</w>
▁L ooking</w>
u ff
r ights</w>
pr▁ oc▁
pos ite</w>
plo y▁
iti on▁al</w>
ind ic
ed ing</w>
agre eme▁nt</w>
M on
5 00</w>
▁extr eme</w>
▁a r▁
▁O per
▁B el
t▁ic le</w>
st ablis
o▁ un▁
m at▁
ir▁ ae</w>
he▁ l▁d</w>
e▁ ri
elec ti▁on</w>
d aemun</w>
c ur▁
ad ver
▁f aster</w>
▁day care</w>
▁Yong in</w>
▁M an
you▁ r</w>
st a▁rt</w>
os u</w>
m▁ en▁t</w>
el er
diffic ul
con feren▁ce</w>
aut om
N .</w>
▁w i▁th</w>
▁ow ned</w>
▁h ike</w>
t ow
l e▁d</w>
il▁ ls</w>
S un
▁fre ely</w>
▁e g
▁dem ands</w>
tr ie▁s</w>
th▁ ing</w>
is ional</w>
h▁ alf</w>
f e▁r
ex ▁t</w>
evelop me▁nt</w>
c▁h eon</w>
bass y</w>
at▁ ion▁s</w>
at o▁ry</w>
G▁yeong gi</w>
▁intern et</w>
▁exemp tion</w>
▁bir thday</w>
▁T imes</w>
▁D i
s▁ ta▁
l▁i k▁
lik e▁ly</w>
el em
comp et▁
a▁r ed</w>
▁sing ers</w>
re▁ la▁ted</w>
mus ic</w>
es tr
ent um</w>
ea c
e u▁n</w>
c e▁s</w>
ation a▁l</w>
ap y</w>
J u▁ne</w>
▁reas onable</w>
▁lea gue</w>
▁K ia</w>
▁&▁ quot;</w>
ul ted</w>
t▁ h▁
sy▁st em</w>
pr▁ ob
prev e▁nt</w>
m id</w>
ish es</w>
is si▁on</w>
if ts</w>
er able</w>
ead ily</w>
M Z</w>
▁pur poses</w>
▁par ti
▁merch ants</w>
▁hum an
▁ac tions</w>
▁I ts</w>
▁C ri
un ior</w>
s eok</w>
re▁ ss
p▁ol ice</w>
prosec ▁u
pl ied</w>
ou ido</w>
os un</w>
m▁ ov
fin▁ al</w>
d ou
ar row</w>
, ▁
▁tim ▁e</w>
▁s eal</w>
▁resol ved</w>
▁fa ith</w>
▁classi fied</w>
▁bu yers</w>
▁ass aul
▁Inst ead</w>
tim▁ es</w>
l oo
inclu▁ ding</w>
c▁ er
c at
E X</w>
▁tur ning</w>
▁s ources</w>
▁behav ior</w>
▁a▁ nd</w>
▁W on
▁H ol
ograp h
it ual</w>
ic it</w>
emerg en▁cy</w>
. .</w>
▁wor st</w>
▁stud ied</w>
▁situ ations</w>
▁o therwise</w>
▁n ecess
▁doll ar</w>
▁Kor e▁a</w>
▁D an
as ses</w>
Un it▁ed</w>
T ra▁
▁val u
▁rem ove</w>
▁pr o▁
▁power ful</w>
▁per man
▁exc eeded</w>
▁am oun
s ou
probl em</w>
oc c▁
mor ning</w>
kn owl
e▁s s▁
c▁om p
E ▁n
▁sou p</w>
▁har d
▁f ill</w>
▁Str eet</w>
▁S ystem</w>
o▁r d</w>
oy s</w>
j o▁ng</w>
g l▁
fil m</w>
abil i▁ty</w>
J uly</w>
D A
,0 0▁0</w>
▁u plo
▁s oci
▁lin ked</w>
▁inv oice</w>
▁in str
u p▁
r an</w>
p i▁c
form ed</w>
e▁x p▁
enter ▁ed</w>
eat edly</w>
co▁mp any</w>
coun tries</w>
, 7
▁ter min
▁str aight</w>
▁l e▁
▁f ails</w>
▁dis crimination</w>
▁W ashington</w>
▁G o
r▁ ate</w>
re x
pr ais
indus tri▁al</w>
g ov▁ern
e▁ am</w>
▁netw or
wh eth▁er</w>
qu a▁r
ath y</w>
ass ment</w>
S ta▁
▁sh ut
▁s cienti
▁cr ack
▁Z one</w>
▁M ean
k inderg
h ealth</w>
ber g</w>
b o▁r
a▁ k
al▁ ue</w>
D i▁
▁win s</w>
▁u k</w>
▁success fully</w>
st op</w>
st a▁ge</w>
, 6
▁sec ret</w>
▁For est</w>
ot a</w>
or▁ ry</w>
in▁ d</w>
ind epend
il i▁es</w>
h oo▁n</w>
ed▁ ge</w>
ac tly</w>
20 th</w>
. 5
▁un ve
▁th▁ e▁re</w>
▁s pl
▁def in
▁c red
▁ap olog
g yp
agre ement</w>
C o▁un
A N</w>
1▁ 9
1 0th</w>
▁v oc
▁inj ury</w>
▁W ednesday</w>
uch eon</w>
por ti▁ng</w>
inv olv
accor di▁ng</w>
En ter
3▁ 0</w>
▁pl ays</w>
▁continu ing</w>
par ag
o thers</w>
essi ons</w>
Sch o▁ol</w>
▁ha v▁e</w>
▁d er
▁bor row
▁analy ze</w>
▁Indus tries</w>
▁Gyeong buk</w>
wi▁ n
m yeon</w>
h a▁rd</w>
dr a▁
ar ound</w>
ann ou▁n
U▁n ited</w>
&a▁pos▁ ;</w>
▁pre viously</w>
▁l ess
▁gar den</w>
▁contro versi
rel▁ ated</w>
▁sing ing</w>
▁re jected</w>
▁coll ecting</w>
▁cl ou
▁J ung
sal es</w>
s anc
p▁ o▁s
pro jects</w>
oti c</w>
num ber</w>
h it</w>
fac il▁
, 8
&▁ap▁os ;</w>
▁pre fer</w>
▁Ar ticles</w>
y one</w>
ti▁ n▁g</w>
r▁ em
ograp hy</w>
min im
me▁d ical</w>
k▁ ey</w>
charac ter
Jap▁ anese</w>
▁sem in
▁s p▁
y ear▁s</w>
s ociety</w>
off▁ icial</w>
is▁ m</w>
gre▁ at</w>
f em
ener y</w>
busin ess▁es</w>
arm ing</w>
3 7</w>
▁negoti ation</w>
▁dang erous</w>
▁Pro t
▁Con cer
tic▁ al</w>
o▁r ts</w>
ish eries</w>
e▁c tion</w>
ex c▁h
arg o</w>
al ogue</w>
▁s entiment</w>
▁frequ ent</w>
▁dis close</w>
u▁ nd</w>
s un</w>
oo▁ ls</w>
l ets</w>
iber ati▁on</w>
S C</w>
&a▁po▁s ;</w>
▁tow ards</w>
▁m el
▁Shin han</w>
▁S om
s▁ i</w>
syst e▁m</w>
sh ould</w>
qu ality</w>
om b
n ings</w>
m ess
hw a▁n</w>
ech an
bu y</w>
▁replac ement</w>
▁invol ving</w>
▁belong ing</w>
▁F amily</w>
▁Buddh ist</w>
y▁ ears</w>
y a</w>
t omorrow</w>
p u▁r
i ol
em p▁l
b el▁
ay ▁ed</w>
▁num bers</w>
▁down town</w>
▁det eri
▁bl ind</w>
▁Mean while</w>
reg ion▁al</w>
c a▁ll</w>
&a▁pos▁ ;▁s</w>
▁mil k</w>
▁hel ping</w>
▁g ate</w>
v en▁
th in▁g</w>
o▁r d▁ing</w>
or se</w>
or n</w>
mo d▁
lo▁ ve</w>
k e▁rs</w>
i▁ ons</w>
id▁ eo</w>
ac▁ c
V s</w>
Da e▁
▁vi ews</w>
▁rel ief</w>
▁pr im
▁h ot
▁gl ass</w>
▁feel ings</w>
▁center ed</w>
▁a spec
▁B oth</w>
yo▁ ur</w>
t▁r ict</w>
tic ultural</w>
s man</w>
r▁ ough</w>
pl aces</w>
f▁er red</w>
f ind
co▁m p▁
D evel
▁volunt ary</w>
▁sp icy</w>
▁so ft</w>
▁satis faction</w>
▁c ake</w>
▁R ather</w>
▁C rea
▁A be</w>
u esday</w>
sc re
in▁ v
h▁ ye</w>
h aus
de p▁
art a</w>
administr ati▁ve</w>
S▁ outh</w>
C C</w>
▁piec es</w>
▁fru it</w>
▁enter prise</w>
▁dis advant
▁B en
reg ion</w>
prov id
pro f▁it</w>
o▁w ing</w>
ech eon</w>
d er▁
ch il▁
c ard</w>
S oo</w>
S AT</w>
3 3</w>
2 9
▁wor s
▁sharehol ders</w>
▁rem oved</w>
▁l et
rec or
me e▁
il it▁y</w>
i e▁nce</w>
f er▁
esti v▁al</w>
con▁ t
▁t ar
▁pain tings</w>
▁memor ies</w>
▁flex ible</w>
▁fav or</w>
▁ex ▁
▁diagnos is</w>
▁cons ent</w>
▁adop ted</w>
w eb
po▁ p
mea▁ sur
im medi
h op▁e</w>
bus▁ in
▁r ally</w>
▁h eight</w>
▁exten d</w>
▁employ ed</w>
▁3 4</w>
om▁ y</w>
mon ths</w>
employ ▁ed</w>
ed ged</w>
cas ▁es</w>
c ourt</w>
b▁ uk</w>
▁v eter
▁pat ent</w>
▁ma p</w>
t▁h ere</w>
rea▁ dy</w>
loc at▁ed</w>
h ig▁h</w>
ardi an</w>
B ur
▁wat er
▁eng ine</w>
▁dou b
▁Ar my</w>
tric ▁t</w>
r▁ ul
me an▁s</w>
m us▁ic</w>
en h
dre▁ n</w>
J us
▁w edding</w>
▁identi ty</w>
▁happ iness</w>
▁c y
▁br ight</w>
▁N orthern</w>
▁G re
t▁h ree</w>
ific ati▁on</w>
al ists</w>
S o▁
Pro moti▁on</w>
▁s ex
▁disclos ed</w>
▁c up</w>
▁Chang won</w>
▁Am azon</w>
wo▁r ld</w>
s▁ ystem</w>
situ ati▁on</w>
rul i▁ng</w>
i ant</w>
f▁or m</w>
educ ▁ation</w>
coun ter
arb age</w>
▁cop y</w>
s e▁d</w>
iti cal</w>
c m</w>
Gy▁ eong
▁th▁ er▁e</w>
▁issu ance</w>
▁in her
▁hum ans</w>
▁f estivals</w>
▁dis asters</w>
t▁ ies</w>
presid enti▁al</w>
g ers</w>
en▁ ing</w>
ad v▁
Y ang
W oo</w>
H ye</w>
4 8</w>
▁le isure</w>
▁disapp eared</w>
▁aff ect</w>
▁Stud ents</w>
ur ement</w>
th erm
s▁tr ong</w>
s afety</w>
ro oms</w>
p▁ ri
on▁ es</w>
l friend</w>
for ceme▁nt</w>
com▁ pl
E uro
▁rec over</w>
▁dis charg
▁S oon</w>
y▁ oung</w>
p i
ic ate</w>
ho▁ l
e▁ ls</w>
con du▁c
M i▁n
▁politi ci
▁memor ial</w>
▁im port</w>
▁foot ball</w>
▁air craft</w>
▁aim s</w>
▁Ac ademy</w>
under st
gu ar
f▁am ily</w>
ew oo</w>
duc ts</w>
S h▁
▁viol ations</w>
▁mas sive</w>
▁R ob
▁Gang seo</w>
tal▁ ks</w>
rel atio▁ns</w>
over se▁as</w>
os is</w>
med▁ ia</w>
l▁ ik
con si▁
a e▁
J in
D el
▁rem ained</w>
▁pleas ant</w>
▁p our
▁Res idents</w>
▁Br idge</w>
▁A uth
t▁ om
m illion</w>
k et
exp a▁n
a▁n s
En viron
▁n erv
▁i ▁t</w>
▁gr anted</w>
▁bo y</w>
▁R ural</w>
▁Coll ege</w>
▁4 5</w>
o ir</w>
ing ing</w>
in sur
ch on</w>
as ting</w>
S h▁in</w>
P ar▁k</w>
▁sh ipment</w>
▁part ner</w>
▁dis h</w>
▁D r
re po▁rt</w>
if▁ ic</w>
hea▁ d</w>
ener ation</w>
en e▁ss</w>
candid a▁te</w>
broad cas
▁s a▁id</w>
▁r i▁ght</w>
▁prog res
▁m al
▁f ing
▁ag ent</w>
▁G un
r▁ ep
on a</w>
ij eong
he▁ al
e▁ ir</w>
ec o</w>
e ung
dep u▁ty</w>
b ro▁
C oun▁
▁win ners</w>
▁suppl ied</w>
▁prof essors</w>
▁m all</w>
▁foun ded</w>
▁Sp ain</w>
▁3 0
ro▁u gh</w>
iv▁ er
ic k▁
ec ▁t</w>
c ost</w>
S e▁r
G r
▁tr ends</w>
▁k ing</w>
▁gather ing</w>
▁c ir
▁B ig</w>
olo▁ g
m yeo▁n</w>
ind ep
il os
c▁ oun
contin u
consid ▁
ac ti▁ve</w>
Direc t▁or</w>
11 th</w>
▁trou ble</w>
▁sol ved</w>
▁reg ime</w>
▁r ating</w>
▁chann el</w>
▁T own</w>
▁K um
un g▁
s▁ ti
p at▁
inv es▁
dep artme▁nt</w>
bec a▁me</w>
ay ers</w>
C entr▁al</w>
▁win ner</w>
▁under ground</w>
ul ating</w>
pop ul▁ar</w>
empl o▁y
ell er</w>
1 8th</w>
, 9
▁princi pal</w>
▁j um
▁hon or</w>
▁h ous
▁F ur
r ise</w>
lo▁ ok</w>
is io▁n</w>
hi▁ gh
econom ic</w>
c▁h a▁r
as k▁ed</w>
an▁ ch</w>
▁reg ulatory</w>
▁h undreds</w>
▁C h▁
m ov▁
ll ing</w>
equ ip
en n
bud g▁et</w>
bec om
a▁s k</w>
a▁m p
G w▁
12 th</w>
▁prosec utors</w>
▁manag ers</w>
▁cl ubs</w>
▁begin s</w>
▁ad ult</w>
▁Inv estig
▁3 3</w>
repres ent▁
issi ons</w>
g el
er age</w>
an n▁
201 5</w>
▁re in
▁qu ick</w>
▁fri endly</w>
▁des ire</w>
▁comp on
▁clos ing</w>
▁aut umn</w>
▁ad ap
▁19 6
ye on▁g</w>
ul ▁ed</w>
u ition</w>
ri c</w>
par liam
on ment</w>
de▁c i▁ded</w>
av il
ai▁ r</w>
▁pro pos
▁land scape</w>
▁inter ior</w>
▁ecos ystem</w>
▁cl ient</w>
▁categ ory</w>
▁c ited</w>
▁N ew
s▁ afety</w>
m▁ an
m anufac
l e▁s</w>
a▁ fte▁r</w>
R ev
K a▁ng</w>
B usin
▁v it
▁th oughts</w>
▁step s</w>
▁st ea
▁por tion</w>
▁inten si
▁St and
v eh
s▁ l
ic▁ an</w>
f i▁ne</w>
an el</w>
am ou▁nt</w>
a u</w>
C ou▁n
▁st adium</w>
▁s ac
▁forec ast</w>
▁clim ate</w>
▁N ong
▁In nov
stud ents</w>
ph ot
l in▁e</w>
il ding</w>
h▁av ▁e</w>
fir s▁t</w>
e▁ conom
a▁in st</w>
armaceu tical</w>
H a</w>
B r▁
▁s outh</w>
▁rep eatedly</w>
▁fr aud</w>
▁custom s</w>
▁acqu isition</w>
▁In spec
▁Gir ls</w>
wor kers</w>
umb ent</w>
s▁ ized</w>
g ▁e</w>
employ e▁es</w>
e in</w>
b▁ e▁
H eal▁th</w>
▁w o▁r
▁un ification</w>
▁ph ones</w>
▁fir es</w>
▁ded icated</w>
▁bic ycle</w>
▁appro ach</w>
ur e▁s</w>
s▁h oul▁d</w>
s▁ er▁
ed▁ ly</w>
cer tific
an▁ k</w>
a w▁ay</w>
Bar eun
▁see king</w>
▁g aining</w>
▁con clusion</w>
▁M ajor</w>
zbek istan</w>
sc▁h ool</w>
re▁ st</w>
on▁ ce</w>
grad u
el ih
c ean</w>
anm ar</w>
▁t i▁me</w>
▁sol ar</w>
▁s it</w>
▁p riv
▁crea m</w>
▁aw ards</w>
tr u▁c
th▁ ere</w>
ond ary</w>
i▁l l▁
ac h▁
U. S▁.</w>
M e
, 4
▁st eadily</w>
▁prev enting</w>
▁p ork</w>
▁n ote</w>
▁accompan ied</w>
t▁ ae</w>
sec reta▁ry</w>
s e▁nt</w>
organiz atio▁ns</w>
itch en</w>
f utu▁re</w>
dis t
an▁ n
D a▁
&a▁po▁s ;▁t</w>
▁temper atures</w>
▁selec ting</w>
▁inspec t</w>
▁aud iences</w>
▁Ac tress</w>
ul▁ tural</w>
t ae</w>
sti▁ ll</w>
ma▁ t
larg e▁st</w>
i▁ gh</w>
for▁ m</w>
ea h</w>
bl ing</w>
ar▁ tment</w>
▁restric tions</w>
▁M ike</w>
▁E U</w>
ucle▁ ar</w>
pres s
m ad▁e</w>
b al</w>
Associ ati▁on</w>
▁ur ged</w>
▁surpr ised</w>
▁identi fy</w>
▁Con trol</w>
wh▁ ic▁h</w>
ur ches</w>
su fficient</w>
re q▁u
pro moti▁on</w>
pl▁ ex</w>
ellec tual</w>
con▁ ti▁n
b▁ est</w>
ain ts</w>
Pri▁ me</w>
C on▁
▁mar ine</w>
▁f allen</w>
▁Pas tor</w>
t me▁nt</w>
per ly</w>
o▁ l</w>
ous ness</w>
our▁ t</w>
mi▁ll ion</w>
it ely</w>
elec t▁ed</w>
S A</w>
▁util ize</w>
▁P OSCO</w>
t▁ le</w>
tor al</w>
r i▁s
ov .</w>
duc es</w>
bu il▁
&ap▁os▁ ;</w>
▁sm oke</w>
▁h arm
▁S ol
▁P ur
▁I s
wh▁ ere</w>
te▁ m
tem per
intern at▁ional</w>
g oo▁d</w>
compan ie▁s</w>
Je▁ ju</w>
▁tea ching</w>
▁ro of</w>
▁r ▁
▁dest ination</w>
w▁ i▁ll</w>
ultur ▁e</w>
oo den</w>
is h▁
h ou▁
h i</w>
erea ved</w>
dom▁ estic</w>
ampion ship</w>
19 th</w>
▁wea pons</w>
▁refug ees</w>
▁fin es</w>
▁f ulf
▁er ror</w>
▁cancell ation</w>
▁St ore</w>
r o▁ss</w>
ang h
@▁ -▁@</w>
▁tim ing</w>
▁st ates</w>
▁expen se</w>
▁epis ode</w>
▁ear th</w>
ter ▁n
se▁ cond</w>
ma▁ y</w>
l and
invest▁ ig
▁ran king</w>
▁mess ages</w>
▁deb ut</w>
w a▁nt</w>
ver n
trans port
sh ort</w>
j▁ oy</w>
in▁ cial</w>
es ides</w>
envir o▁n
P▁ar ty</w>
▁reg arded</w>
▁r oyal</w>
▁n utr
▁fun eral</w>
▁ab und
▁N ot
wo▁r king</w>
un▁ ity</w>
intern ation▁al</w>
ign ment</w>
h▁ n
eleb ri
ee▁ ds</w>
ch es
brea k</w>
W elfa▁re</w>
D is▁
▁p eak</w>
▁inform ed</w>
▁U rban</w>
▁Gw anak</w>
▁4 00</w>
s▁ un</w>
s▁ e
re t▁
pr▁oc▁ ess</w>
p .▁m.</w>
l og
iv▁ en</w>
h▁ a▁d</w>
beg▁ an</w>
ash ing</w>
▁restor ation</w>
▁id ol</w>
▁don ated</w>
▁deliber ate</w>
▁J eong
▁Ir an
um ber</w>
inspec ti▁on</w>
if i▁ed</w>
ec te▁d</w>
d ae</w>
an▁ other</w>
S E
▁u l</w>
▁fil ming</w>
▁W ill</w>
ti▁ ci
ti▁ al</w>
pro gr▁am</w>
poin t▁ed</w>
fac ▁t</w>
e▁n g
c k</w>
▁st aying</w>
w om▁en</w>
t▁r y▁ing</w>
sec uri▁ty</w>
s o▁l
ow n▁ed</w>
k▁ et</w>
f os
ch o</w>
c ou
a▁ rou▁nd</w>
Pro sec
▁g arbage</w>
▁comm unities</w>
▁J u</w>
▁C el
sub ▁
oc▁r atic</w>
m ant
j udg
i▁n v
i▁c es</w>
c ust
▁con tribu
▁con fron
▁N or
wh el
w ing</w>
ul p
st ory</w>
si o▁ns</w>
or ful</w>
g ather
att en▁
af ternoon</w>
Ch▁ ina</w>
▁un comfortable</w>
▁sol id</w>
▁s ick</w>
▁in stitutes</w>
▁f ake</w>
▁S ociety</w>
v ic▁e</w>
tu▁ al</w>
su▁pp o▁rt</w>
l▁ ine</w>
h▁ el
hi▁ m</w>
gan ic</w>
exper i▁
es▁ ted</w>
eong nam</w>
ea ble</w>
b i▁
Ju▁ ly</w>
F eder
▁ver ification</w>
▁pos itions</w>
▁ev ac
▁c o▁
▁Yong san</w>
▁Asi ana</w>
▁ ent</w>
re port▁ed</w>
k age</w>
driv i▁ng</w>
b▁e fore</w>
al▁ ready</w>
N E
A sia</w>
▁s auce</w>
▁legisl ation</w>
▁im pose</w>
▁advertis ement</w>
th ere
resear ch▁er</w>
p oi▁nt</w>
os s
e▁n ti
et t▁er</w>
c▁ ar
ate▁ gy</w>
ac ting</w>
Fin anci▁al</w>
Ch a▁ir
▁sw imming</w>
▁sup posed</w>
▁smo king</w>
▁partic ularly</w>
▁g e
▁exp iration</w>
▁an ticip
▁H eavy</w>
sit uation</w>
se ver
s ea</w>
p re</w>
m ulti</w>
l▁ ife</w>
int▁ er▁
g ir
f ine</w>
er k</w>
d ▁e</w>
cri tici
ay ment</w>
ac cus
P▁ l
3 8</w>
&▁apo▁s ;t</w>
▁w aves</w>
▁veget ables</w>
▁tem ple</w>
▁rec ycl
▁rec ip
▁piec e</w>
▁exper tise</w>
▁Sen ior</w>
▁P o
with standing</w>
u▁s try</w>
urr ence</w>
u h
res ul▁ts</w>
m ir▁ae</w>
m e▁d</w>
i▁ als</w>
ch ai▁rm▁an</w>
ak ▁
S ept
Gover n▁ment</w>
▁proc essed</w>
▁implem enting</w>
▁gu ests</w>
▁expl ains</w>
▁advertis ements</w>
▁a te</w>
urr y</w>
pon ent</w>
politi c▁al</w>
per s▁
ign ation</w>
ig g
fu▁ ll</w>
conc entr
an c▁ed</w>
In tern▁
▁th us</w>
w▁ ar</w>
p oor</w>
l ar▁
e▁ lec
en ior</w>
a▁ st
att ached</w>
ac le</w>
C ourt</w>
0 ,0▁00</w>
▁sinc er
▁offic io</w>
▁lif elong</w>
▁fur n
▁allow ance</w>
▁Se wol</w>
u▁ tion</w>
un ion</w>
u g▁
s m▁
o pl▁e</w>
f ig
ed g▁ed</w>
amp▁ ;</w>
ag er</w>
N ort▁h</w>
▁vis its</w>
▁str eets</w>
▁mand atory</w>
▁am b
▁K wang</w>
▁B ae</w>
t ook</w>
s▁ oon</w>
pr ing</w>
n▁ ess</w>
l ey</w>
e d▁uc
c en▁
c ame</w>
a▁ rea</w>
P yong
A mer
3 4</w>
▁suppl ies</w>
▁boo k
▁Independ ence</w>
▁1 .5</w>
rev eal▁ed</w>
pl at
n om
l ater</w>
en ses</w>
af▁ ter</w>
ach es</w>
▁st ance</w>
▁m ood</w>
▁el imin
▁R eal</w>
techn ology</w>
pl us</w>
m ove</w>
h ours</w>
gover n▁
es pec
ent age</w>
cl▁ os
ap ed</w>
an ish</w>
▁sub ordinate</w>
▁sm oothly</w>
▁sec re
▁enjoy ing</w>
▁d r▁
▁bo ost</w>
▁S ur
▁Al ong</w>
w▁ it▁h</w>
un i
star ti▁ng</w>
▁w est</w>
▁t uition</w>
▁cor ner</w>
▁c ou▁ld</w>
▁S in
▁3 6</w>
respec tively</w>
ood les</w>
o y▁
n e▁d</w>
i▁n cial</w>
itt ees</w>
in formation</w>
ik es</w>
i w
er in▁g</w>
H▁ an</w>
▁ris en</w>
▁over l
▁larg er</w>
▁bat tery</w>
▁atten dance</w>
▁ass igned</w>
▁Ital y</w>
w▁ ard</w>
si us</w>
ot▁ el</w>
ordin ary</w>
il t</w>
e▁ x</w>
e ig▁ht</w>
comm unity</w>
Mar ch</w>
H all</w>
9 2</w>
0 00</w>
▁w ine</w>
▁s inc▁e</w>
▁fe et</w>
▁accur ate</w>
▁Every one</w>
▁E gyp
wh a▁t</w>
vis it</w>
sup▁ port</w>
re port
n ation</w>
e▁n tly</w>
et▁ ter</w>
et own</w>
em phas
B u▁
▁z ones</w>
▁strength ened</w>
▁r ace</w>
▁demonstr ation</w>
▁cons ensus</w>
▁certif ied</w>
▁cal c
▁ar chitec
▁an gry</w>
▁a l▁
▁S u</w>
▁Par is</w>
s een</w>
pl an
ou g▁ht</w>
m y▁eon</w>
m anufactur
l t</w>
er g▁
C ultur▁al</w>
▁saf ely</w>
▁k een</w>
▁f it</w>
▁chann els</w>
▁Gal axy</w>
▁ tr
sp a▁ce</w>
partic▁ ip▁
ow ad
k▁ now</w>
il ty</w>
ex chang
ch▁ ool</w>
a▁t es</w>
In cheon</w>
▁m o▁n
▁inspec tions</w>
▁hol ds</w>
▁K oo</w>
▁G ar
p▁ ar▁
oth e▁r</w>
minis t▁er</w>
P▁ ark</w>
P r▁es
▁p rou
▁mob il
▁minis try</w>
▁k eeping</w>
▁j us
▁her itage</w>
▁dr aft</w>
▁b id
▁agric ulture</w>
vers ity</w>
sp ace</w>
i▁ tie▁s</w>
h app
ft ware</w>
f inis
e▁n se</w>
atio▁n al</w>
&a▁pos; d</w>
▁volunt arily</w>
▁m ission</w>
▁li ked</w>
▁gu ard</w>
▁displ ayed</w>
▁accum ulated</w>
▁CC TV</w>
t▁ ive</w>
res erv
exc ell
em er▁
compa▁n ies</w>
citiz e▁ns</w>
Y o▁on</w>
P al
▁s ew
▁f ro
▁bea ch</w>
▁app oint</w>
u▁ ry</w>
ic i▁al</w>
e▁nt ary</w>
d▁ own</w>
c all</w>
ati s</w>
S ong
F o▁
2▁ 0</w>
▁favor able</w>
▁ass oci
▁Pl anning</w>
▁201 ▁
r al</w>
pr eme</w>
l er</w>
ir t</w>
gr at
f▁ in
e▁ men▁t</w>
a ver
C o▁n
▁tex t
▁st ood</w>
▁calcul ated</w>
▁br idge</w>
▁L t
▁C ustom
ur▁ ch</w>
s uc▁h</w>
pos sib▁
man ip
caus ▁ed</w>
at▁ her</w>
Comm▁ ittee</w>
▁parti ally</w>
▁n arrow</w>
▁exhib itions</w>
▁comp ar
▁c ells</w>
▁T witter</w>
▁S orry</w>
▁O b
yo▁ ung</w>
ond on</w>
h um▁an</w>
g ent
find i▁ng</w>
dis cu▁
cont in▁ue</w>
b es</w>
1 5th</w>
▁scholar ship</w>
▁ab norm
▁Y eah</w>
▁Hwas eong</w>
sus p▁
sex u▁al</w>
pos t</w>
pe▁r son</w>
p it
n ews</w>
c▁ ent</w>
▁l ink</w>
▁J ohn</w>
▁Dis aster</w>
▁&q▁u o▁t;</w>
w el
un ivers
s▁ ia</w>
j u▁ng</w>
go▁ al</w>
fi▁r st</w>
S ong</w>
▁trans port</w>
▁tea ch</w>
▁sh ips</w>
▁s ai▁d</w>
▁prom ise</w>
▁p al
▁m agn
▁b ereaved</w>
▁Sou theast</w>
▁L un
▁Ar ab
h ib▁
g▁ ot</w>
c itizens</w>
ak a</w>
1 .
▁succ eeded</w>
▁main taining</w>
▁inc umbent</w>
▁c at</w>
▁a c▁
▁U.S.- China</w>
▁S uch</w>
▁M er
ti g
over s</w>
l ea▁r
im al</w>
f requ
d uring</w>
coun tri▁es</w>
a▁ ms</w>
S▁e o▁ul</w>
S ▁h
J a▁ng</w>
▁writ er</w>
▁tax pay
▁sti p
▁sam ples</w>
▁pl▁ ace</w>
▁mar ks</w>
▁lux ury</w>
▁fl ag</w>
▁e scape</w>
▁e c
▁Gor yeo</w>
▁A g
wee k
v e▁r</w>
r▁ d</w>
fr▁ i
f il▁
e iv
c a▁n
▁r oo
▁person ality</w>
▁kil om
▁illeg ally</w>
▁ex tingu
▁b ar</w>
m i▁ng</w>
k g</w>
fu▁ l</w>
expec t
der ▁s</w>
d et▁
c ou▁rt</w>
c ap▁
as c
Sec uri▁ty</w>
▁rep eated</w>
▁Mar itime</w>
▁M ich
▁Do osan</w>
rel eas▁ed</w>
quart e▁rs</w>
owad ays</w>
l▁ et</w>
lea di▁ng</w>
e▁ ff
e▁ ars</w>
e t▁s</w>
d ingly</w>
art ers</w>
an▁ ks</w>
Sup re▁me</w>
A ug
▁trea t</w>
▁satis fied</w>
▁ref used</w>
▁recru it</w>
▁di e</w>
▁M ilitary</w>
▁Air lines</w>
u t▁ion</w>
t l▁y</w>
t ech</w>
s▁ ur
ill▁ ion</w>
a he▁ad</w>
Gang won</w>
Bl▁ ue</w>
▁res ulting</w>
▁l ab
▁co ordin
▁M od
t▁ iv
ov e▁r</w>
k▁ ers</w>
j oin
iv▁ ing</w>
is▁ on</w>
dis c▁
design at▁ed</w>
cul▁ tural</w>
S o</w>
▁sm ile</w>
▁serv ants</w>
▁pers pec
▁l e▁v
▁dom in
▁brea d</w>
▁W ater</w>
▁F isheries</w>
o▁ ri
ma▁r ket</w>
govern m▁ent</w>
f ol
eun mirae</w>
B O</w>
▁entr eprene
▁M or
▁3 8</w>
ult▁ ural</w>
is▁ t
Kor▁ ean</w>
Gang nam</w>
▁prov ision</w>
▁n o▁t</w>
▁h idden</w>
▁gu est</w>
▁Th ursday</w>
s▁ orr▁y</w>
previ o▁us</w>
issu es</w>
Artic▁ l▁e</w>
5 2</w>
&▁ a▁
▁thor oughly</w>
▁h ur
▁Jeoll anam</w>
▁C er
und▁ ai</w>
ea▁ t</w>
▁tempor arily</w>
▁perc entage</w>
▁k ids</w>
▁clos er</w>
▁arr anged</w>
sur ▁e</w>
sa▁ y</w>
o▁l ogy</w>
ow▁ s</w>
environ me▁nt</w>
ea ting</w>
as sed</w>
C D</w>
▁str ange</w>
▁slow down</w>
▁recor ding</w>
▁l ength</w>
▁gr and</w>
▁gener ated</w>
▁ex cluding</w>
▁cir cles</w>
▁U zbekistan</w>
▁My anmar</w>
▁Law maker</w>
o▁ u▁t</w>
l▁ ittle</w>
ien t▁ed</w>
f ish
b or</w>
ag on</w>
ach eon</w>
A pril</w>
7 5</w>
▁up coming</w>
▁res t
▁dis appoin
▁a uto</w>
ver▁ sy</w>
si▁ ty</w>
ref lec
ra▁p h</w>
organiz ati▁on</w>
on ic</w>
m▁ ar▁
me▁ di
inc▁ rea
e▁n t▁
d one</w>
avo id
as hed</w>
aff airs</w>
A ut
,5 00</w>
▁sc andal</w>
▁ris ks</w>
▁op posed</w>
▁El ementary</w>
s o▁m
ook min</w>
m ent▁s</w>
f▁ ro▁m</w>
enterpris ▁es</w>
diff▁er ent</w>
▁tour nament</w>
▁oper ates</w>
▁happen s</w>
▁fl av
tog eth▁er</w>
gr and
dec▁ is▁ion</w>
chil d</w>
al one</w>
En▁ g
1 4th</w>
▁s ix
▁hel p
▁c ultur
▁Ex change</w>
u▁s h</w>
um ul
th ei▁r</w>
ro le</w>
rece i▁ve</w>
p▁ art</w>
ous▁ ly</w>
oc r▁
mon t▁h</w>
l on▁g</w>
il eg
id ential</w>
c ess</w>
appear ▁ed</w>
al k
2 7th</w>
▁withdraw al</w>
▁to il
▁st ayed</w>
▁revital ize</w>
▁min or</w>
serv ices</w>
rex it</w>
q▁u▁ ot;</w>
por▁ t
gover n▁ment</w>
ey ed</w>
comm uni▁ty</w>
att ach▁ed</w>
▁some what</w>
▁Sh ow</w>
▁H ead</w>
▁2 ,000</w>
tiv ▁es</w>
ri▁ se</w>
pa▁ y
o▁ pe</w>
or ient▁ed</w>
m its</w>
iss▁ ue</w>
id er</w>
f▁ uture</w>
f u▁n
a▁m a</w>
▁sit ting</w>
▁par agraphs</w>
▁ab sol
t▁ ake</w>
r▁ s</w>
l es▁s</w>
h wan</w>
go i▁ng</w>
e▁n d
ag▁ ain▁st</w>
&▁apos; ▁s</w>
▁w alls</w>
▁restric ted</w>
▁ph ase</w>
▁perman ent</w>
▁kn ows</w>
▁civ ilian</w>
▁beh alf</w>
▁answ ered</w>
▁H ousing</w>
▁Bar eunmirae</w>
▁4 0s</w>
pl▁ y</w>
p ool</w>
hos t▁ed</w>
go al</w>
elec tr▁
d ig
N e▁w</w>
D evelopme▁nt</w>
A▁ ss
4 9</w>
▁let ters</w>
▁extr em
▁drea ms</w>
▁co ol
▁Il bo</w>
ven ti▁on</w>
pol itan</w>
g▁ ro▁
f a▁r
eas ing</w>
e h▁
b en
ati cs</w>
S e</w>
Ch e
▁t ears</w>
▁sett led</w>
▁evalu ate</w>
▁b ow
▁b io</w>
▁anx iety</w>
reg ar
eti zens</w>
er▁ y</w>
cur r▁
co in</w>
b▁ o
az ing</w>
all ig
C o
▁off ers</w>
▁inten ded</w>
▁St adium</w>
▁Her itage</w>
u d</w>
p ain
o▁ use</w>
op i▁n
e▁ ong</w>
comp▁an ie▁s</w>
az ak
at o</w>
▁mag az
▁m erg
▁boy friend</w>
▁b ath
▁K E
tu s</w>
ti▁ l</w>
t unately</w>
s▁ ol
s▁ ince</w>
s i▁n
op pos▁
lik ely</w>
h u▁
der ▁ed</w>
a▁r ty</w>
ar i</w>
A pr▁il</w>
▁v otes</w>
▁d eal
▁comp ete</w>
▁boo ked</w>
▁b ond</w>
▁ad mitted</w>
▁S ure</w>
▁F SS</w>
w arr
th rou▁
s k▁
r▁ ed
re▁ t
m ind</w>
f ish</w>
ed estr
co▁ ll
Serv i▁ce</w>
▁w astes</w>
▁rea c
se▁ en</w>
pro▁ bl
om ing</w>
ol▁ ogy</w>
fe▁ el</w>
environ ment</w>
con serv
c iti▁es</w>
A hn</w>
▁sp okesman</w>
▁ch osen</w>
▁M ok
wi▁ fe</w>
s oc▁
o▁ te</w>
os eong</w>
n or
m u▁st</w>
inn ov▁
igh ter</w>
g yo</w>
eep s</w>
conduc t▁ed</w>
Ch il
3 6</w>
2 1st</w>
▁vis ion</w>
▁sub committee</w>
▁separ ated</w>
▁low ered</w>
▁l ed
▁impres sive</w>
▁fea sibility</w>
▁deep ly</w>
▁abs ence</w>
▁Ch un</w>
w ee▁
th ird</w>
sus pic
on ight</w>
j ung</w>
inc▁ re▁ase</w>
fr ont</w>
d est
a▁l ity</w>
ai▁r man</w>
ac ific</w>
Mar▁ ch</w>
Ar t</w>
▁w ild</w>
▁strugg ling</w>
▁res ▁
▁produc ing</w>
▁o d
▁l ibr
▁adj ustment</w>
▁Offic ials</w>
n u▁m
he▁ on</w>
gu es</w>
f ew</w>
exp a▁nd</w>
c au
a▁ mo▁
ag a▁in</w>
J eon
&apos; ▁
▁prot est</w>
▁occ as
▁mul ticultural</w>
▁mis s
▁l ea▁
▁indic ators</w>
▁honor ary</w>
t▁ al
tr▁ ict</w>
trad ition▁al</w>
spec ial</w>
sa▁ ying</w>
or gan
j oin▁
et c.</w>
ay a</w>
ap h
am ing</w>
ak arta</w>
ab uk</w>
▁‘ ‘</w>
▁m ass
u el
la▁ w
e▁x pec
eti n</w>
du▁r ing</w>
af te▁r</w>
▁log istics</w>
▁loc als</w>
▁ass istance</w>
▁C ath
s▁ exual</w>
j ak</w>
etro po▁l
empl▁ oy
ec e</w>
N o.</w>
▁s ustain
▁res erve</w>
▁im ports</w>
▁form ation</w>
▁controversi al</w>
t▁ ment</w>
ran ki▁ng</w>
o▁ le</w>
l ad
is ▁t</w>
f u▁r
ew er</w>
ev en
d eath</w>
ch ▁es</w>
S K</w>
▁s qu
▁lim itations</w>
▁correspon dent</w>
▁cons ult</w>
▁bur eau</w>
▁academ y</w>
▁Y eon</w>
s ent</w>
r e▁d</w>
mat ch</w>
ill ing
ep age</w>
con ti▁n
and is</w>
S um
S i</w>
▁Gwang jin</w>
▁G uro</w>
s▁ ayin▁g</w>
pe▁ opl▁e</w>
pas sed</w>
li▁ ve</w>
d ust</w>
ap▁ ed</w>
an a▁l
af t▁
K▁or ea▁n</w>
G ov▁ern
Agric ultur▁al</w>
, 3
▁volunt eers</w>
▁sm ell</w>
▁s ik</w>
▁neighbor hood</w>
▁m ir
▁fac tories</w>
▁c argo</w>
▁b ear</w>
▁Conf uc
▁Co ast</w>
▁B ucheon</w>
▁B ang</w>
▁2 .
od es</w>
n at▁
H ead
Con struc
▁st om
▁le▁v el</w>
▁hel icop
▁gradu ate</w>
▁fre edom</w>
▁cl oud</w>
▁N et
▁G ood</w>
tern s</w>
st ing</w>
k ish</w>
inform▁ ation</w>
fr▁ o▁m</w>
com par▁ed</w>
ch ief</w>
au gh</w>
ab l▁ed</w>
N G</w>
F r▁
▁rout es</w>
▁f erry</w>
▁answ ers</w>
▁a im</w>
▁V alley</w>
▁A ward</w>
▁5 0s</w>
w▁ ith
uc k
su▁ n</w>
s per
oo▁ ks</w>
g reat</w>
enti ally</w>
dr y</w>
at▁ i▁on</w>
am ber</w>
ain e▁d</w>
ac ▁t</w>
a eg
J▁ ae</w>
▁st ages</w>
▁pres ervation</w>
▁collap sed</w>
▁S al
▁J oint</w>
▁I D</w>
su▁ it</w>
sup pl
p oin▁
o▁ to</w>
m▁ od
ful▁ ly</w>
el l▁
contr a▁ct</w>
b▁ec ome</w>
ar res
al ism</w>
▁s or▁ry</w>
▁re f▁erred</w>
▁cont ain</w>
▁certific ates</w>
▁Com pared</w>
pol icies</w>
m et
al i▁ty</w>
▁scen es</w>
▁pr o</w>
▁pas sion</w>
▁m ission
▁franch ise</w>
▁e ast</w>
▁an ti
▁abund ant</w>
▁K O
▁Dru g</w>
▁Dec laration</w>
sus p
q▁ ue</w>
mo▁ ve</w>
e▁ um</w>
er▁ ing</w>
agr am</w>
ad j
a c</w>
▁tar iff</w>
▁scor es</w>
▁l ong
▁em otional</w>
▁be ef</w>
▁Pre viously</w>
▁Not withstanding</w>
▁I sl
z one</w>
t▁ri al</w>
s ively</w>
re te</w>
par k</w>
over ▁
om estic</w>
oc ol
m e▁nts</w>
e▁ er</w>
eas y</w>
co▁n t▁
compl▁ ex</w>
ad d▁ed</w>
▁sens itive</w>
▁institu tional</w>
▁disp utes</w>
▁Han oi</w>
u til
sec tor</w>
in ning</w>
ig h▁er</w>
g i
ess i▁on</w>
e y▁
ap es</w>
H ou▁se</w>
G r▁
▁pos s
▁k itchen</w>
▁investig ations</w>
▁di alogue</w>
▁b odies</w>
▁I l</w>
▁Aud it</w>
un ds</w>
se qu
s eas
n▁ ame</w>
m▁ uch</w>
la▁ w</w>
if ▁e</w>
en a</w>
de ung
ag e▁s</w>
aff ili
G▁ u</w>
13 th</w>
▁ins isted</w>
▁ex haus
▁c ust
▁V ol
▁3 ,000</w>
wor ds</w>
n ation
it ability</w>
if ic▁
elebri ties</w>
e ul</w>
cons ci
▁tr ain
▁rev olution</w>
▁b eat</w>
▁Wor kers</w>
▁Sw ed
r▁ et▁
or ▁e</w>
ol▁ ve</w>
m o▁r
infl u
el▁ d</w>
direc t▁ly</w>
differ e▁nt</w>
Y▁ oo</w>
20 0▁
2 8th</w>
&▁a pos▁;t</w>
▁win ds</w>
▁resid ence</w>
▁g ri
▁fa ith
▁cl erk</w>
w▁ it
vol unt
ul g
t al</w>
re vis
pos▁ si▁ble</w>
om e▁n</w>
mor ni▁ng</w>
ex chan▁ge</w>
enc our
di▁ sc
d a▁te</w>
R es▁
A ▁n
▁mon etary</w>
▁mo is
▁harm ful</w>
▁gener ations</w>
v ent</w>
res sion</w>
o▁ b
iv alent</w>
iti▁ ve</w>
in c▁lud
i z</w>
ev e▁r
curr ent▁ly</w>
▁var i
▁post pon
▁b r▁
▁achiev ements</w>
▁Afr ica</w>
tr ue</w>
ser ve</w>
in struc
in qu
g▁ an
char g▁es</w>
angh ai</w>
a ur
W omen</w>
O s</w>
O ct
▁work place</w>
▁th e▁ir</w>
▁subscri bers</w>
▁ex actly</w>
▁E ui</w>
▁Ch un
tr i▁ll
s▁ ai▁d</w>
s por▁ts</w>
por t▁s</w>
p oll
ministr ative</w>
e▁ ge</w>
cas es</w>
Univer ▁
A I
▁targ ets</w>
▁n orth</w>
▁car bon</w>
▁M ir
▁F our</w>
y l
w▁ or▁
w o▁men</w>
su ffer
sib ilities</w>
r ank
our c▁es</w>
osp it▁al</w>
ig er
es▁ tiv
ca▁ p
Tr u▁mp</w>
5 5</w>
▁th▁ ink</w>
▁review ing</w>
▁mur der</w>
▁crack down</w>
▁acqu aint
▁P resid
▁Jud ge</w>
t▁ on</w>
ol es</w>
mon▁ ey</w>
min u▁te</w>
in▁ cluding</w>
c▁ha▁r ge</w>
chang ed</w>
b▁ ers</w>
a ise</w>
B u
▁ex ist</w>
▁cons ist
▁c a▁n</w>
▁T h▁
▁M ac
us hed</w>
sc ale</w>
per▁ ty</w>
ot ten
offic ials</w>
mon t▁hs</w>
l angu
j▁ ust</w>
j▁ ae</w>
int egr
fun▁ ds</w>
ab inet</w>
Su▁ preme</w>
In d▁
▁w ooden</w>
▁sc enery</w>
▁j oy</w>
▁ch urches</w>
▁N e
▁Int elligence</w>
▁C andid
▁B ible</w>
▁&apo▁s ;▁s</w>
y wood</w>
un▁ ch</w>
ual ties</w>
ron ic</w>
ol d
dec lar
c ou▁
a ul</w>
▁t op
▁n oted</w>
▁fr▁ om</w>
▁Reg ional</w>
▁Jeon ju</w>
▁Eng land</w>
▁D em
▁C J</w>
▁20 ▁
sid ▁e</w>
l in</w>
e▁n cy</w>
ex isti▁ng</w>
dis app
d own
az e</w>
ag eous</w>
act▁ iv
S ep
In stitu
Hw a▁ng</w>
G eun</w>
Dep u▁ty</w>
2 6th</w>
▁the ory</w>
▁revis e</w>
▁re views</w>
▁rain y</w>
▁manufactur ers</w>
▁d i▁
▁S um
▁Gyeongsang buk</w>
pro mis
pr o</w>
ploy ed</w>
p ti▁on</w>
or i▁ty</w>
diff▁ ic
Y ear</w>
W▁ or
1 s▁t</w>
▁liter ature</w>
▁dem entia</w>
▁cur ious</w>
▁con grat
w ed</w>
rou▁ ps</w>
iver ▁
ilit ation</w>
anc e▁s</w>
D P</w>
B yung</w>
; ll</w>
▁un t▁il</w>
▁tr uck</w>
▁ser iously</w>
▁rail way</w>
▁har assment</w>
t▁ ional</w>
iz▁ at▁ion</w>
il▁ lio▁n</w>
hist ory</w>
g rea
diff i▁c
anm unj
ab▁ out</w>
& am▁p;</w>
▁r ock</w>
▁analy zing</w>
▁Se ocho</w>
▁ try</w>
ur b▁an</w>
si▁ m
pop ul▁
ne w▁
m▁ at
m eas▁
l ives</w>
l ead</w>
in ery</w>
ig▁h ts</w>
ec▁ tion</w>
e very</w>
b▁ ur
U l
Pro f
L im</w>
F C</w>
C▁h ina</w>
Busin e▁ss</w>
4 2</w>
▁tur ns</w>
▁sec ondary</w>
▁pres ence</w>
▁for ms</w>
▁f ever</w>
▁enti ty</w>
▁analy sts</w>
▁P ost</w>
▁B MW</w>
wor▁ ks</w>
si▁ a</w>
pers o▁ns</w>
em a</w>
de▁v el
at▁ io▁ns</w>
Th▁ at</w>
S▁ eo</w>
S on</w>
DA Q</w>
A g
▁so il</w>
▁sen iors</w>
▁neg lig
▁kilom eters</w>
▁gener ally</w>
▁Iran ian</w>
▁Innov ation</w>
w▁h er▁e</w>
vi ol▁
ti▁ c
r▁ is
r y
in iti
el▁ l
ea ch
dh ood</w>
con▁ti▁n ue</w>
C ▁up</w>
▁out come</w>
▁nur sing</w>
▁gradu ates</w>
▁f ighting</w>
▁dis position</w>
▁cou l▁d</w>
▁Th e▁re</w>
▁Bl ack</w>
sit es</w>
s av
os ing</w>
k n▁
er▁ ce</w>
cil or</w>
O▁ ffice</w>
I l
Gwang ju</w>
Com▁ m
A p
4 4</w>
▁res truc
▁l ights</w>
▁const antly</w>
▁calc ulation</w>
▁ac tress</w>
▁R en
▁2 6
tem por
sus pen
spe▁ ed</w>
r ail
proc ed
memb er▁s</w>
m enti
gr i</w>
econ o▁my</w>
draw i▁ng</w>
d ay▁s</w>
a▁mo▁ unt</w>
all i▁ng</w>
▁thor ough</w>
▁comm od
▁c utting</w>
▁U K</w>
te▁ ch</w>
s▁ ing</w>
sea s▁on</w>
r▁ u
in te▁
i ated</w>
foll ows</w>
ff▁ ic</w>
er▁ ation</w>
en▁ tial</w>
b ang</w>
am un</w>
al ities</w>
ad em▁
R e
J a▁p
H e</w>
Bareun mir▁ae</w>
▁sim ultan
▁s ug
▁s oo</w>
▁r om
▁fundam ental</w>
▁fac ed</w>
▁f ail</w>
▁ab sor
▁Un ification</w>
▁H ong
▁Del iberation</w>
var▁ ious</w>
te▁ ll</w>
s▁t ud
ri▁s k</w>
rais ▁ed</w>
ir s</w>
e▁ ther</w>
develop▁ ed</w>
ch i▁ld</w>
ap▁ p
S por▁ts</w>
I A</w>
▁fol k</w>
▁f ab
▁attrac tions</w>
▁Ar t▁icle</w>
vi o▁l
u▁ g
s▁ ing
per▁ sonal</w>
pay me▁nt</w>
or▁ es</w>
on▁ y</w>
eep er</w>
c▁ ity</w>
bur s
S ub
Ass e▁m
▁wh▁ o</w>
▁ir reg
▁inst alling</w>
▁character ized</w>
▁b an</w>
▁Un ions</w>
▁Pri ze</w>
▁2 8
vi e▁
v id▁eo</w>
th ou▁gh</w>
st▁ op</w>
re port</w>
in ev
gr ade</w>
ex ten
can n▁ot</w>
ac ter
V i▁ce</w>
H y▁
1 7th</w>
1 1▁
▁mat ches</w>
▁counter measures</w>
▁Indi an</w>
wi▁ de</w>
u▁ le</w>
therm ore</w>
produc t</w>
m or▁
du▁ ce</w>
b▁ us</w>
ar i▁
H a▁n
G ro▁up</w>
▁subsid iary</w>
▁se ts</w>
▁n oodles</w>
▁fun ding</w>
▁cl othing</w>
▁celebr ate</w>
▁assaul ted</w>
w ent</w>
v i▁s
ul ▁t</w>
ra th▁er</w>
oun ded</w>
m▁ us
e▁ at</w>
er as</w>
L G</w>
J un▁g</w>
▁un expected</w>
▁prefer ential</w>
▁inten sive</w>
▁in sufficient</w>
▁fir ▁st</w>
▁extr a
▁Med ium</w>
▁Gyeongsang nam</w>
▁Cri tics</w>
▁Con stitutional</w>
w ear</w>
t ype</w>
re po▁r
pos sib▁le</w>
ow▁ ing</w>
off i▁ci
maj or</w>
j ang</w>
h our</w>
cl o▁se</w>
ba▁ se</w>
ak ed</w>
R▁ W</w>
3 9</w>
▁spec t
▁semin ar</w>
▁r oll
▁gir lfriend</w>
▁acqu ired</w>
▁Gim po</w>
ver s▁
val ue</w>
tr ea▁
su ant</w>
retu▁r n</w>
pa▁ ss
p ass</w>
os c
er▁ n
an▁ cial</w>
▁sh▁ all</w>
▁review ed</w>
▁m icro
▁h ate</w>
▁gir ls</w>
▁estim ate</w>
▁dist ingu
▁cri tical</w>
▁K ookmin</w>
▁H er</w>
▁3 7</w>
pre dic
ov el</w>
i▁r st</w>
erg ency</w>
eng er</w>
e z</w>
M▁ ar
C▁ enter</w>
C ultu▁re</w>
Al t▁h
▁rec ession</w>
▁re ference</w>
▁prob ably</w>
▁practic es</w>
▁b on
▁F TC</w>
tr ip</w>
s▁ ts</w>
p ir
orth e▁rn</w>
ir ty</w>
fi▁l m</w>
eas e▁d</w>
b er▁s</w>
agric ultur▁al</w>
Tra▁ de</w>
S o▁ng</w>
▁sl eeping</w>
▁incen tives</w>
▁M oo</w>
▁M etropolit▁an</w>
p▁l ace</w>
m aking</w>
ici ans</w>
e▁ te</w>
ew or
eff or▁ts</w>
bo▁ ok</w>
Sp▁ ec
S NS</w>
P l▁
B a▁nk</w>
20▁1 9</w>
▁util izing</w>
▁supplem entary</w>
▁n e
▁contr ary</w>
▁Th ai</w>
▁L ove</w>
▁5 ,000</w>
v el</w>
om er
h ol▁
ga▁ ve</w>
c▁ au▁
cre a▁te</w>
competi ti▁on</w>
ch a▁ng
b illion</w>
allig rap
Wor ld</w>
W h▁
St a▁te</w>
P▁ ol
P a▁
Gover ▁n
▁w estern</w>
▁h ospital
▁ear ned</w>
▁S o
treat me▁nt</w>
st able</w>
s in▁g</w>
qu arter</w>
pr em
n ia</w>
n as
ing dom</w>
ear n
diff e▁r
dem a▁nd</w>
Un i▁
4 6</w>
▁work shop</w>
▁serv ing</w>
▁mis sed</w>
▁ind oor</w>
▁eng ineering</w>
▁adj usted</w>
ul▁ d</w>
me▁ et▁ing</w>
i▁ cial</w>
il ▁ed</w>
ent l▁y</w>
c or▁
▁viol ating</w>
▁stat ements</w>
▁qu ar
▁op posite</w>
▁m oon</w>
▁gre en
▁differ enti
▁Re uters</w>
▁Cel sius</w>
su ff
r▁ec ent</w>
re p▁or
pr ices</w>
pl anni▁ng</w>
oot ball</w>
l▁ ook</w>
estab l▁
emb l▁y</w>
b ase</w>
G a▁ng
▁war ned</w>
▁viol ated</w>
▁pen insula</w>
▁di et</w>
▁com ment</w>
▁Sp anish</w>
▁A f
t m▁ent</w>
pol ici▁es</w>
in tr▁
end ship</w>
em▁ bly</w>
em y</w>
eg ae</w>
dep art
c oll▁
a▁ round</w>
avil ion</w>
ai▁n s</w>
J oon</w>
H a▁ll</w>
▁subscri ption</w>
▁su fficient</w>
▁prom ising</w>
▁mon itor</w>
w ould</w>
u▁ k</w>
ur▁ ing</w>
s▁m all</w>
ph ys
jec tion</w>
j oy
i▁ er</w>
comm er
bl es</w>
T his</w>
▁R ight</w>
▁K w
▁I sn</w>
w ri
w al
ur ▁al</w>
t▁ oo</w>
s▁ ik</w>
s▁ ide</w>
sh ap▁ed</w>
s pon
s anc▁
r igh▁ts</w>
p▁os ▁
pr▁ ep
por ter</w>
per cent</w>
m ust</w>
ic als</w>
en c▁ed</w>
elih ood</w>
ag ency</w>
A D</w>
▁qual ification</w>
▁prom p
▁prec ious</w>
▁extra ordinary</w>
▁equ ivalent</w>
▁C are</w>
▁C ard</w>
oo▁ ds</w>
lo▁ st</w>
househ ol▁ds</w>
est ors</w>
Dep artme▁nt</w>
▁unve iled</w>
▁prou d</w>
▁memb ership</w>
▁help ful</w>
▁har mony</w>
▁R ed</w>
st▁ ar
s el</w>
rev ital
o ti▁
l▁ ast</w>
in▁ t▁o</w>
inter n▁
indus▁ trial</w>
ih eung</w>
i us</w>
ens ▁e</w>
el ine</w>
bl▁ em</w>
M i</w>
▁sav ings</w>
▁rum ors</w>
▁reflec ts</w>
▁m ine</w>
▁ir on</w>
▁equ ity</w>
▁consid erable</w>
▁c ycle</w>
▁T uesday</w>
▁Jeon nam</w>
▁@ ▁
▁200 6</w>
th i▁n
s ev▁en</w>
ma▁ d▁e</w>
if▁ ic
deung po</w>
a▁ ti▁
Sam sung</w>
Hy und▁ai</w>
G A</w>
▁th ea
▁strateg ies</w>
▁ph r
▁moun tains</w>
▁Gyeong ju</w>
▁Chung nam</w>
u ous</w>
tic ▁e</w>
st ep</w>
s ter</w>
p▁ port</w>
illeg ▁al</w>
ell i▁ng</w>
c ili
▁wit n
▁uncer tain
▁sh el
▁s ounds</w>
▁s c▁
▁o x
▁hea ting</w>
▁chea p</w>
▁charg ing</w>
▁@▁ -@</w>
resid enti▁al</w>
r or
produ▁c t</w>
pl a▁
mid d▁le</w>
manag e▁ment</w>
i▁ n▁
f▁ er</w>
dam a▁ge</w>
act▁ ively</w>
▁sol ving</w>
▁resear cher</w>
▁pre ven
▁k illing</w>
▁i s▁
▁hop ed</w>
▁exc eeding</w>
▁Ac ts</w>
uc tu
s▁ ung</w>
rea son
or▁ ted</w>
mark ets</w>
ijeong bu</w>
e▁ ff▁
direc tor</w>
ativ ▁es</w>
Jus ti▁ce</w>
4 7</w>
4 3</w>
▁str onger</w>
▁c ook</w>
▁Is ra
sh ip
rup ted</w>
mod▁ el</w>
iver s</w>
en si▁ve</w>
com▁p a▁red</w>
an ches</w>
ad d▁
acc o▁rd▁ing</w>
Spec i▁al</w>
3 0th</w>
201 4</w>
▁t un
▁strateg ic</w>
▁notif ication</w>
▁compl icated</w>
▁arti stic</w>
▁W ith
▁U n</w>
▁Som etimes</w>
▁H ist
▁H a
w el▁l</w>
t▁ri es</w>
r▁ athe▁r</w>
ow ns</w>
org an▁
occ up
ios ity</w>
f u
es el</w>
d rew</w>
cus e</w>
ai▁ ly</w>
S oon</w>
Intern at▁ional</w>
2 3rd</w>
▁the i▁r</w>
▁small er</w>
▁doc tors</w>
▁an cient</w>
▁G un</w>
▁Comm and</w>
▁Co ach</w>
▁6 00</w>
t▁w ee▁n</w>
s il
rel eased</w>
pr▁ov ide</w>
po▁ in
on a▁l</w>
n ex▁t</w>
e▁r a</w>
expl ain▁ed</w>
P resident</w>
G roup</w>
▁t▁ he</w>
▁g ifts</w>
▁doc um
▁construc ted</w>
▁aband oned</w>
▁Han a</w>
▁H ome</w>
▁D r.</w>
um es</w>
sel ▁f</w>
or es</w>
n ig▁ht</w>
me▁ eting</w>
ma▁ il</w>
ener gy</w>
e ing</w>
c a▁rs</w>
ai▁ l
af tern
O K</w>
N o▁rth</w>
C oll
0 5</w>
▁thous ands</w>
▁pres erv
▁ex it</w>
v ate</w>
u▁r es</w>
si k</w>
offic ▁e</w>
mit ting</w>
f e
do▁ or</w>
comm ission
com i▁ng</w>
ci t▁y</w>
ches tra</w>
c old</w>
Comm▁ it▁tee</w>
Ch airpers▁on</w>
▁l ▁
▁har v
▁destro yed</w>
▁coll ective</w>
▁advis ory</w>
▁Wo ori</w>
▁Mongol ia</w>
▁C N
▁2 3
x i</w>
u▁ t
suspec t▁ed</w>
so▁ ld</w>
re▁ en</w>
ove▁r seas</w>
import a▁nt</w>
gener al</w>
e ously</w>
ad▁ v
ac▁ ts</w>
Sec ur
Ph one</w>
Indus tri▁al</w>
▁rob ot</w>
▁m o▁
▁m i</w>
▁con g
▁accommod ation</w>
▁ac compl
▁T ea
v in▁g</w>
v al▁ue</w>
s▁h ou▁ld</w>
si tion</w>
op en▁ed</w>
h ou▁rs</w>
c▁ are</w>
a▁l es</w>
appro priate</w>
all et</w>
S am▁
▁prom otional</w>
▁observ ed</w>
▁ear n</w>
▁crow ded</w>
▁child birth</w>
▁ass embly</w>
▁Th eir</w>
▁Song pa</w>
▁G umi</w>
▁For ce</w>
un c
p▁er son</w>
m▁ ental</w>
is t▁er</w>
h yeon</w>
ee ing</w>
d iv▁
con tribu
U▁ .S.</w>
Ch u▁ng</w>
▁sharehol der</w>
▁lik es</w>
▁fos tering</w>
▁expec tation</w>
▁effec tively</w>
▁cultur es</w>
s e▁s</w>
r a▁n
od aemun</w>
k e▁t</w>
d▁ am
app ing</w>
▁w illing</w>
▁typ ical</w>
▁over whel
▁orig in</w>
▁ it</w>
v ▁es</w>
to▁ ld</w>
sh al▁l</w>
organiz ▁ed</w>
fam ili▁es</w>
exper ▁ts</w>
en ty</w>
du▁r in▁g</w>
con di▁
al ▁e</w>
W ▁h
K o▁r
Ch ung</w>
▁spec ies</w>
▁par ks</w>
▁mov es</w>
▁med al</w>
▁des per
▁cont ained</w>
▁co al</w>
▁b oss</w>
▁Rep ubl
▁Cor p.</w>
▁Comm erce</w>
▁Ad ministrative</w>
▁&a▁ pos;s</w>
os ted</w>
loc ▁
iv ▁er</w>
gh▁ t</w>
dis p
coun ts</w>
contro ver▁sy</w>
bas▁ ic</w>
appl i▁ed</w>
ang ▁e</w>
and i▁ng</w>
a os</w>
Su per
I sl
2 9th</w>
2 4th</w>
1 6th</w>
▁mat h</w>
▁m arg
▁fru its</w>
▁fri ed</w>
▁Ye osu</w>
▁M an</w>
▁L ondon</w>
▁Fur thermore</w>
▁ ti▁on</w>
truc tion</w>
s ud
op hy</w>
m etropolit▁an</w>
lawmak ▁er</w>
h▁ t</w>
e▁nt al</w>
d▁ ep
c▁ ess</w>
ch ar▁
be t▁ween</w>
E ducation</w>
▁un known</w>
▁stud io</w>
▁h ired</w>
▁Th ough</w>
▁ on</w>
you▁ th</w>
u t▁e</w>
sur v▁ey</w>
se▁ e</w>
m ay▁or</w>
l aw▁
cer tif
Def en▁se</w>
2 5th</w>
▁util ization</w>
▁t end</w>
▁par ▁
▁fr▁ ont</w>
▁fac es</w>
▁ar gue</w>
▁U N</w>
▁M c
▁Lun ar</w>
▁Ch osun</w>
with out</w>
tr av▁
s old</w>
re plac
p▁ re
oo ked</w>
j un▁g</w>
ir ▁ed</w>
for ced</w>
co▁ un▁
cor p▁or
con nec
con f▁
S chool</w>
G im
▁ver ify</w>
▁perc eption</w>
▁earn ings</w>
▁accoun ted</w>
▁Sm art</w>
▁N o
▁I m</w>
▁Hy o</w>
▁D av
▁1 20</w>
parag ra▁ph</w>
par ki▁ng</w>
ou t▁
m on</w>
it ain</w>
hib ition</w>
ey es</w>
excell e▁nt</w>
eo▁ l</w>
dem onstr
ch e▁ck</w>
c us▁
b re▁
atte▁n t▁ion</w>
ang ible</w>
D aej
5 ,000</w>
&a▁p▁os ;▁s</w>
▁six th</w>
▁shor tly</w>
▁reg ularly</w>
▁neg lec
▁mark ed</w>
▁m igr
▁ch at</w>
▁att or
▁Str ategy</w>
▁Prot ection</w>
▁M BC</w>
▁Da ewoo</w>
▁11 9</w>
to▁ ur
il i▁
f ound
e▁n sive</w>
con d▁uc
S er▁
B ank</w>
▁system atic</w>
▁so ftware</w>
▁com fort</w>
▁but ton</w>
▁Mar ine</w>
▁Gang dong</w>
▁Comm unity</w>
wh o▁se</w>
streng th
s ical</w>
p▁ar ty</w>
pr▁ ot
m▁ ost</w>
m un</w>
bit r
9 5</w>
▁un ions</w>
▁rest ore</w>
▁g all
▁dis charge</w>
▁c ute</w>
▁Sh anghai</w>
th▁ eir</w>
t arg
o ons</w>
i▁n to</w>
iz za</w>
h▁ ealth</w>
em ploy▁
ch all
M an
L and</w>
▁el ements</w>
▁don ations</w>
s ign▁
po▁ s▁
inter pre
in su▁r
h aps</w>
ere in
devel▁ op</w>
b▁l em</w>
ai▁ ls</w>
K▁or▁ ea</w>
Ce▁n ter</w>
▁un employment</w>
▁reg ret</w>
▁reflec ting</w>
▁perspec tive</w>
▁p ow
▁mom entum</w>
▁every day</w>
▁e n▁
▁d ealing</w>
▁cas ualties</w>
▁T aek
tr ade</w>
r▁ o
res ults</w>
po▁r ts</w>
pl ic
off ee</w>
mis si▁on</w>
i▁ onal</w>
itt▁ en</w>
h ment</w>
g▁ roup</w>
fl edg▁ed</w>
eph one</w>
c anc▁
c am
C l▁
5 3</w>
▁prem iums</w>
▁neighbor ing</w>
▁led ger</w>
▁h an
▁break fast</w>
▁brea king</w>
▁an c
▁P C</w>
z h
pres cri
pos▁ it▁ion</w>
n ucle▁ar</w>
ie▁ f</w>
facil i▁ty</w>
ex c▁
end ant</w>
dis clos
coun c▁il</w>
a▁l k</w>
H i▁gh</w>
▁qu iet</w>
▁o ff▁
▁deleg ated</w>
▁cap abilities</w>
▁Presid ential</w>
▁3 D</w>
▁20 22</w>
st o▁re</w>
ref e▁r
prov id▁ed</w>
ous ▁e</w>
o ked</w>
form ati▁on</w>
fl oor</w>
ex▁ c
ef▁f o▁rts</w>
do▁ esn</w>
Tr ump</w>
C u▁l
1 2▁
▁valu able</w>
▁spea king</w>
▁for get</w>
▁L ake</w>
tr ust</w>
tr av
st an</w>
si t▁e</w>
r on</w>
prec ed
mi▁ll i▁on</w>
ic▁ ts</w>
es is</w>
en er▁gy</w>
d u▁st</w>
announ c▁
Y eon
5 G</w>
▁w ▁h
▁tit led</w>
▁th o▁se</w>
▁st artups</w>
▁rem in
▁mut atis</w>
▁in n
▁M apo</w>
▁Inspec tion</w>
▁F ederal</w>
▁D ream</w>
▁Br anch</w>
sec▁ urity</w>
r ice</w>
r es</w>
on ers</w>
in i▁ng</w>
im pl▁
b a▁nd</w>
b an
at ings</w>
al rea▁dy</w>
S ec▁
M y
Ass ociation</w>
2 2nd</w>
▁week ends</w>
▁semiconduc tors</w>
▁revital ization</w>
▁ma them
▁kn owing</w>
▁furn iture</w>
▁ar ▁e</w>
▁Ye ouido</w>
▁5 5</w>
ti n</w>
t ments</w>
spec i
rec on
pro j▁
oper ati▁ng</w>
m▁ obile</w>
lo om
iqu es</w>
hist o▁ry</w>
cit▁ iz
ch a▁n</w>
an▁ ces</w>
S oci▁al</w>
L ib▁
K T</w>
Ch ang
▁tal ented</w>
▁sol utions</w>
▁mut andis</w>
▁l ot
▁k eeps</w>
▁join ing</w>
▁h ire</w>
▁ex istence</w>
▁dr inks</w>
▁dem anding</w>
▁Elec tion</w>
▁Am bassador</w>
ti ms</w>
s▁ k
pa▁r ty</w>
negoti atio▁ns</w>
i▁t al</w>
iz ure</w>
investig▁ ation</w>
ent▁ r
c▁ aus
▁suspen d</w>
▁sac rif
▁politici ans</w>
▁objec tion</w>
▁norm ally</w>
▁deleg ation</w>
▁Per sons</w>
ul n
ou ts</w>
ott en</w>
introduc ▁ed</w>
if ier</w>
cr isis</w>
ch e
a eb
In t▁ern
▁transl ation</w>
▁ordin ances</w>
▁hom epage</w>
▁eas ing</w>
▁col orful</w>
▁c elebrities</w>
▁bo oth</w>
▁b e▁
▁argu ment</w>
▁Sch ol
▁G reat</w>
ti m</w>
s▁ ay</w>
ic le</w>
ef▁ t</w>
du ty</w>
contr▁ ol</w>
P S</w>
Eng lish</w>
▁t end
▁mak eup</w>
▁m echan
▁correspon ding</w>
▁S us
▁S aem
▁Olymp ic</w>
▁Mr .
▁G en
▁For um</w>
▁Bel g
w id
tr illi▁on</w>
par t▁y</w>
o▁w er</w>
mat h</w>
i▁c k</w>
estab li▁
en▁ ded</w>
des i▁gn</w>
con▁ cer
ar ▁t</w>
H er
▁pro ve</w>
▁pat tern</w>
▁ob st
▁j u
▁bal anced</w>
▁Tur kish</w>
▁P res
▁Environ mental</w>
r▁ ec▁
p resident</w>
o▁ i</w>
ow in▁g</w>
op eration</w>
iv ▁es</w>
in spe▁c
ific ally</w>
i el
g▁ ive</w>
f ar▁
estab l
er ial</w>
ch air
c ent
av ▁e</w>
augur ation</w>
am e▁s</w>
Y e▁
St ati▁on</w>
R ec
B e
A n▁
9 8</w>
▁sh ock</w>
▁propos als</w>
▁neigh bors</w>
▁man power</w>
▁fl oo
▁dec eased</w>
▁O k
▁20 ,000</w>
shar i▁ng</w>
ot▁ e</w>
m oun
em en▁ts</w>
bui▁l t</w>
ac▁ h</w>
ab▁ il▁ity</w>
S y
Pol i▁cy</w>
G od</w>
▁ph ilos
▁minis tries</w>
▁leg s</w>
▁inf ants</w>
▁den ied</w>
▁S e▁
▁B o</w>
ti o▁n
se e▁ms</w>
s ea▁
per i
m uc▁h</w>
m ly</w>
ic ▁ed</w>
g▁row th</w>
fam iliar</w>
expen s▁es</w>
ett e▁r</w>
en s▁
d ivid
bu▁ s
O n
Bl ue</w>
B ud
▁succ eed</w>
▁short age</w>
▁per su
▁mar tial</w>
▁h asn</w>
▁dep ends</w>
▁dea ths</w>
▁conc rete</w>
▁c and
▁advis ed</w>
tak ▁en</w>
sec tion</w>
r▁ an</w>
pre▁ vious</w>
ot▁ te</w>
l▁ik▁ ely</w>
lis ▁
h▁ wa</w>
fr aid</w>
e▁n dly</w>
ewor thy</w>
esti▁ g
eff e▁ct</w>
a▁b ou▁t</w>
av ed</w>
anc ement</w>
ak ▁e</w>
additi on▁al</w>
T our
▁sav ed</w>
▁pr ay</w>
▁pass port</w>
▁op tim
▁num erous</w>
▁gu ilty</w>
▁go▁ in▁g</w>
▁achiev ement</w>
▁Sup er</w>
▁&qu ▁o▁t;</w>
pers ons</w>
partic i▁p
our▁ th</w>
o b▁er</w>
k▁ i</w>
e▁ al</w>
execu ti▁ve</w>
ex i▁st
d e▁rs</w>
ch ec
at o▁rs</w>
▁t ot
▁rel ax
▁l iber
▁i l</w>
▁fl u
▁des k</w>
▁d ress</w>
▁c able</w>
▁B rexit</w>
▁Ar gent
xim ately</w>
serv ▁ed</w>
r i▁ce</w>
pre▁ s
or i▁g
on o▁my</w>
in tro▁
h oon</w>
e▁n ▁
e▁ et</w>
d em▁
cl ▁e</w>
ch o
bri ef
at▁ t
G overnor</w>
Co▁m m
Ch in▁a</w>
▁vess els</w>
▁u ▁
▁rel ocation</w>
▁pregn ant</w>
▁off line</w>
▁n eck</w>
▁grad uation</w>
▁fin als</w>
▁en ds</w>
▁contain er</w>
▁cont acted</w>
▁conf usion</w>
▁a g▁
ur g
t▁ ors</w>
r▁ ole</w>
reg i▁on</w>
n ational</w>
itt▁ le</w>
di▁ n▁g</w>
c er</w>
bec ome</w>
add it▁ional</w>
M▁ inis
2 7
▁th i▁nk</w>
▁sol o</w>
▁S elf</w>
sti▁ tu
ri d</w>
p▁er s▁on</w>
ne▁ ws</w>
n ear</w>
m▁ aking</w>
k l
j o▁on</w>
e▁ar ch</w>
expl ained</w>
evalu ati▁on</w>
at eful</w>
ab b
S elf</w>
F▁ or
&qu ▁o▁t;</w>
▁sugg est</w>
▁ship ped</w>
▁r ains</w>
▁dist inc
▁H oll
▁2 7
▁ atio▁n</w>
ut ation</w>
s afe</w>
pro▁ ject</w>
fi▁ ed</w>
ett es</w>
chil d
Or dinance</w>
Min i▁s
Ass oci▁
A cc
5 ▁th</w>
▁rep ayment</w>
▁pur sue</w>
▁op tion</w>
▁n ovel</w>
▁form al</w>
▁busin ess
▁V is
ul a▁r</w>
st yle</w>
st ep
s o▁ng</w>
ph o▁to</w>
op port▁
ob ong</w>
m▁ on▁
frastruc tu▁re</w>
e▁n ing</w>
ea▁ l
ak en</w>
S c▁h
H ouse</w>
Econom ▁ic</w>
▁sustain able</w>
▁s i▁nce</w>
▁immedi ate</w>
▁apolog ize</w>
v arious</w>
th ▁s</w>
t ex
str ong</w>
re fl
pr▁ es▁
pen ed</w>
ow e▁d</w>
m▁ .</w>
l t;</w>
ket ball</w>
id arity</w>
ho▁ l▁d</w>
h uman</w>
fl o
d▁ it</w>
bi▁ll i▁on</w>
a▁ n▁
ass oci
ag i▁ng</w>
M yung</w>
D▁ ae</w>
▁conn ect</w>
▁Sh ins
se▁ nd</w>
re▁ su▁l
pre h
pas s▁ed</w>
impo▁r tant</w>
i efs</w>
h▁ yun</w>
f▁ ter</w>
f ic
ec tions</w>
com▁p any</w>
an tial</w>
O P</w>
A ▁h
▁h ole</w>
▁correc tion</w>
▁U l
▁Buddh a</w>
ul ates</w>
t ou▁r
p▁l ease</w>
l▁ aw
l at
ke▁ ep</w>
int▁er▁ est</w>
cooper ation</w>
c ro
b at
avoid able</w>
T O</w>
R o▁
Pres▁ iden▁t</w>
▁trea sury</w>
▁sign al</w>
▁m on▁
▁larg ely</w>
▁im pris
▁design s</w>
▁bo xes</w>
▁attemp t</w>
▁acc es
▁S quare</w>
▁S il
▁Hy ung</w>
▁Eng ineering</w>
vid eo</w>
ur ies</w>
un ch</w>
ul▁ ture</w>
tr ans▁
pos s▁
n i</w>
ld wide</w>
j▁ oo</w>
in fl▁
fa▁m ily</w>
e▁n e</w>
ea▁ st</w>
cons ul
ar▁ d
an ymore</w>
Oper ati▁on</w>
Dae▁ gu</w>
5 7</w>
▁legisl ative</w>
▁c o▁uld</w>
▁c igar
▁br anches</w>
▁an ger</w>
wo▁ ok</w>
und ang</w>
t▁ ant</w>
s ay▁ing</w>
publ i▁c</w>
os h
n ic</w>
iz a▁tion</w>
h ap▁
ez uel
c▁ o
ch airpers▁on</w>
Gy▁eong gi</w>
▁wel come</w>
▁sug ar</w>
▁st y
▁chea per</w>
▁M yeong</w>
▁D aily</w>
un ded</w>
s af
resid ent▁s</w>
reg a▁r
pl ant</w>
n ati▁onal</w>
lo ad</w>
fr i▁
e ye</w>
confir m▁ed</w>
bec o▁m
a▁ us▁e</w>
am i</w>
J oo</w>
F or▁
&apos; m</w>
▁st ake</w>
▁d ur
▁d or
▁ch ronic</w>
▁ch em
▁U. N.</w>
▁C SAT</w>
▁4 2</w>
s▁ is</w>
sing le</w>
r ors</w>
pur po▁se</w>
progr am</w>
ou ths</w>
om ▁e</w>
min utes</w>
loom berg</w>
long ed</w>
a▁p p▁
ac ti▁on</w>
▁slow ly</w>
▁pos ts</w>
▁par ent</w>
▁op ponent</w>
▁in ner</w>
▁em otions</w>
▁coun ter</w>
▁col onial</w>
▁M aybe</w>
v▁ al
v al</w>
tr i▁
s▁y s▁tem</w>
professi on▁al</w>
p op▁
mat ters</w>
m ent
im a</w>
g ok</w>
fir ▁
fem a▁le</w>
ex pl▁
et ti▁ng</w>
dec rea
au th▁
P▁ ro
▁restruc turing</w>
▁pos ting</w>
▁or g
▁man ual</w>
▁eng age</w>
▁en ters</w>
▁coll ea
▁c oin
▁M anch
▁J am
▁H eo</w>
▁An gel
w est</w>
v ▁ed</w>
ut e▁s</w>
str ateg
stor es</w>
s ens
ri ous</w>
p sych
p ack
or able</w>
m▁ p
l ev
h▁ an</w>
exp e▁ct▁ed</w>
cont▁ in
contin u▁ed</w>
an t▁
S cien▁ce</w>
P o
A ▁u
4 1</w>
2 n▁d</w>
▁us eful</w>
▁t or
▁re hab
▁m ent
▁g ▁
▁extrem ely</w>
▁equ ality</w>
▁diagnos ed</w>
▁KOS PI</w>
▁B it
y m</w>
w▁ a</w>
un i▁
ta in▁
oper at▁ed</w>
gover▁n me▁nt</w>
g rou▁nd</w>
g ove▁rn
fa▁ ir</w>
f und</w>
ev en▁ts</w>
differ ent</w>
d ur
c▁h a▁nge</w>
b ar
H ae</w>
▁tri als</w>
▁sc ulp
▁pl ate</w>
▁instruc tors</w>
▁impres sion</w>
▁immigr ants</w>
▁collabor ation</w>
▁Sh ould</w>
▁Particip ants</w>
▁Enter tainment</w>
▁5 0,000</w>
vis iti▁ng</w>
un▁ g
ti▁v al</w>
s▁ tr▁
s▁ ite</w>
lif ▁e</w>
gh ts</w>
dec ision</w>
bu▁ d
R oh</w>
▁sub contrac
▁stom ach</w>
▁mo thers</w>
▁minim ize</w>
▁libr aries</w>
▁h n
▁gu ys</w>
▁dang er</w>
▁c rew</w>
▁ban king</w>
▁L eg
▁Comp anies</w>
u▁n de▁r</w>
ugg age</w>
s▁ al
of▁ f</w>
institu tio▁ns</w>
h igh▁er</w>
de f▁
c▁h an▁ge</w>
c elebr
ai▁r ma▁n</w>
ag ue</w>
Y a▁ng</w>
▁purch ases</w>
▁juven ile</w>
▁inter views</w>
▁int ellectual</w>
▁identi fication</w>
▁d e</w>
▁com ▁
▁M E
▁Jin ju</w>
▁Auth ority</w>
over ing</w>
le▁ ading</w>
i▁d ent</w>
increa se</w>
id en▁ts</w>
i ances</w>
eti me</w>
es th
comp▁ any</w>
Techn olo▁gy</w>
▁t ough</w>
▁stat ue</w>
▁st ands</w>
▁rel ▁
▁recon struction</w>
▁r iding</w>
▁pas ses</w>
▁p anel</w>
▁not eworthy</w>
▁hom etown</w>
▁fil es</w>
▁dis mant
▁ac knowl
▁Reg ulations</w>
▁200 5</w>
w ar▁d</w>
un gri</w>
spe▁ cial</w>
rais i▁ng</w>
p rivate</w>
olog ic▁al</w>
ocol ate</w>
ock et</w>
jec t▁s</w>
it ably</w>
illing ness</w>
ge▁t ting</w>
e th
d▁ el
cus t▁om
a .▁m.</w>
▁vir tual</w>
▁competi tions</w>
▁Per iod</w>
yr ics</w>
w▁ an▁t</w>
sub je▁ct</w>
r▁ oom</w>
re▁g ular</w>
m▁ i</w>
m yeong</w>
il▁l egal</w>
f a▁ct</w>
e▁ ed</w>
et es</w>
end ers</w>
ee th</w>
consec u
con vers
anc er</w>
aes ong</w>
a ju</w>
▁sp ir
▁pass age</w>
▁med iation</w>
▁f eared</w>
▁exam ples</w>
▁con gl
▁acc ept
▁Jeon buk</w>
▁G ye
▁Comp etition</w>
wh er▁e</w>
tic▁ le</w>
sup p▁ly</w>
r▁ ight</w>
press way</w>
pp oin
ok do</w>
in▁ come</w>
form ing</w>
develo▁p m▁ent</w>
d eok</w>
c y
bl ock
an oth▁er</w>
S ▁u
Comm issi▁on</w>
9 9</w>
&▁ap▁os ;t</w>
▁wea pon</w>
▁war eh
▁th ick</w>
▁hand led</w>
▁d um
▁conn ecting</w>
▁b id</w>
▁W at
▁T ell</w>
▁P or
▁G M</w>
s▁ elf</w>
som ▁e</w>
sh a▁re</w>
s un
s ports</w>
po▁l icy</w>
minim ▁um</w>
mark e▁t</w>
i▁st▁ ry</w>
i o
g t;</w>
e▁as y</w>
d▁ uring</w>
at▁ h
aftern o▁on</w>
ac ti▁v
ac ti▁ng</w>
R A</w>
J a▁e</w>
I P</w>
▁uni form</w>
▁rev eal</w>
▁al on▁g</w>
▁ag gres
▁S im
▁E un
ym nas
s oo▁n</w>
inv es▁t
high e▁st</w>
f un</w>
es p
e ze</w>
de▁ m
cl ub</w>
c ut</w>
ac t▁or</w>
En forceme▁nt</w>
8 8</w>
▁telecomm unication</w>
▁s and
▁prim ary</w>
▁exchang ed</w>
▁exc eeds</w>
▁cons ol
▁b anned</w>
▁a ro
▁J ongno</w>
▁Con s
▁4 8</w>
ye▁ ars</w>
ur ▁ed</w>
tr ical</w>
str eam</w>
res ▁p
og an</w>
lea▁ st</w>
j a▁e</w>
increa si▁ng</w>
in t▁o</w>
h▁ ope</w>
en▁ ted</w>
el▁ fare</w>
d ir▁
Na▁ tional</w>
M▁ in▁
F u▁nd</w>
Ar ticle</w>
▁t om
▁t ight</w>
▁p edestr
▁cr u
▁attrac tion</w>
▁C o.</w>
we▁l fare</w>
tion ally</w>
the▁ me</w>
ro o▁m</w>
ou▁ s
m emor
j oo▁n</w>
ex erc
conv en▁
ber ty</w>
aw a</w>
W a</w>
Sept emb▁er</w>
Ko▁ re
F o▁od</w>
201 3</w>
▁u tive</w>
▁sett le</w>
▁o ve▁r</w>
▁h orse</w>
▁claim ing</w>
▁circ le</w>
▁c iting</w>
▁autom obile</w>
▁W ell</w>
▁U pon</w>
▁Ex cuse</w>
▁C amp
w ri▁
su▁r es</w>
s tic
p▁ res
op ment</w>
o ing</w>
loo ki▁ng</w>
eri a▁ls</w>
di▁ ed</w>
ap yeong</w>
accor dan▁ce</w>
Ord in▁
D ec▁
. m▁.</w>
▁un avoidable</w>
▁s an
▁per i
▁mid st</w>
▁loc ations</w>
▁issu ing</w>
▁in corpor
▁gr ound
▁f ewer</w>
▁en v
▁def icit</w>
▁attemp ted</w>
▁W all</w>
▁N ak
u▁n ity</w>
t▁ en
t ude</w>
st ar▁
ow ned</w>
or▁ ity</w>
org a▁n
op▁ ment</w>
l▁ ess</w>
itiv ely</w>
ev en▁t</w>
en▁ ti
d im
be▁ fore</w>
a▁ r▁
aver a▁ge</w>
ali for
ag en▁cy</w>
Je o▁ng</w>
▁per mit</w>
▁grow s</w>
▁dismis sal</w>
▁b ank
▁atten d
▁amoun ts</w>
▁S illa</w>
u it</w>
road cas
pa▁ ss</w>
od a</w>
o on
m▁on th</w>
f av▁
d▁ er
cl ock</w>
cand i▁d
a▁ ff
P op</w>
J anu
Inv est
E con
▁with draw</w>
▁remov al</w>
▁r atings</w>
▁peti tions</w>
▁b o▁
▁US D</w>
▁Th eater</w>
▁M un
▁Candid ate</w>
wh▁ eth▁er</w>
tr▁ ies</w>
sti ll</w>
p▁l eas▁e</w>
on li▁ne</w>
me▁m bers</w>
med i▁
m ag
inc re▁
a▁r k</w>
al▁ f</w>
Q u
Offic ▁e</w>
Dem oc▁ratic</w>
A ugust</w>
▁ten sion</w>
▁respon ses</w>
▁inv esting</w>
▁democr acy</w>
▁b en
▁U ijeongbu</w>
u▁r ity</w>
t yp
s▁y st▁em</w>
pl▁ ay
om m▁
ob ▁s</w>
me▁m b▁ers</w>
is▁ h</w>
et o</w>
en▁ ess</w>
commission ▁ed</w>
L ife</w>
8 5</w>
▁vis ible</w>
▁r ises</w>
▁prohib ited</w>
▁lea ked</w>
▁f at</w>
▁Lea der</w>
▁Kum ho</w>
w▁ een</w>
view ers</w>
s▁ im
prais al</w>
op pi▁ng</w>
on▁ ic</w>
m▁ any</w>
fi el
est a▁te</w>
del iver
be▁ li
ar row
am ent</w>
5 0
▁wh i▁le</w>
▁w ashing</w>
▁vir tually</w>
▁thous and</w>
▁strugg le</w>
▁res ignation</w>
▁rea ching</w>
tw ave</w>
sh or
rec e▁nt</w>
n▁ umber</w>
l ands</w>
is ms</w>
e ff▁
at ell
S▁e ou▁l</w>
M ov
Li▁ berty</w>
J os
▁renew able</w>
▁neglig ence</w>
▁el ev
▁consult ations</w>
▁bur ned</w>
▁ar ch
▁Sec ond</w>
▁Rev iew</w>
▁Pri or</w>
▁O p
▁For tunately</w>
yst e▁m</w>
sid er</w>
sh o▁rt</w>
pos t
person n▁el</w>
ir able</w>
implem ent
ic ▁t</w>
ic tion</w>
h igh▁
ess e▁s</w>
er ty</w>
du▁ ced</w>
dr ama</w>
amp s</w>
am in</w>
N a</w>
M ark
▁s ought</w>
▁g as
▁flo ors</w>
▁conf ident</w>
▁character istic</w>
▁T est</w>
▁Shins egae</w>
▁O s
tr an▁s
ta▁ ge</w>
sp re▁ad</w>
p▁ol▁ icy</w>
play e▁rs</w>
mob i▁le</w>
l ig▁ht</w>
i▁n ance</w>
it a▁l</w>
im u▁m</w>
f act</w>
ant a</w>
M A</w>
Amer ic▁an</w>
▁urg ently</w>
▁reorganiz ation</w>
▁n eve▁r</w>
▁T ake</w>
▁F ive</w>
▁Cl ub</w>
▁Bur eau</w>
▁3 0,000</w>
per f
m ember</w>
h ak</w>
ea st</w>
circ umst
au▁ lt</w>
Sh in
O S</w>
▁tel ephone</w>
▁sugg ests</w>
▁sub mission</w>
▁pr ide</w>
▁cou ples</w>
▁ar en</w>
▁J ob</w>
par t▁
par ents</w>
ot ers</w>
elec om</w>
consid er
cap it▁al</w>
ast al</w>
ai▁ l</w>
ad o</w>
ab o▁r</w>
▁tr an
▁tr a
▁hop es</w>
▁fac ilit
▁confron tation</w>
▁B ol
ul ▁es</w>
th▁ a▁n</w>
t el
si▁ ze</w>
requ ▁
op p
investig▁ atio▁n</w>
govern men▁t</w>
fort unately</w>
f eel
er i▁es</w>
con tro▁
am en</w>
G an▁g
Ad minis
&a▁ po▁s▁
▁w rap
▁st ro
▁ra ises</w>
▁met al</w>
▁bath room</w>
▁F C</w>
▁Conf ederation</w>
▁20 0,000</w>
with in</w>
win ni▁ng</w>
sc ene</w>
of▁f ice</w>
join▁ ed</w>
e▁ k</w>
elec tions</w>
ar i▁ng</w>
ap art
ang yo</w>
a i
O c▁
D em▁
Ch i▁ef</w>
B a▁
A▁h n</w>
▁w ouldn</w>
▁or ganic</w>
▁di versi
▁L ater</w>
▁H appy</w>
▁Des ign</w>
▁20 00</w>
u a▁l</w>
tra ff▁ic</w>
s o▁ns</w>
qu es▁
o▁p ment</w>
l ow▁er</w>
gr a▁
fun ds</w>
e▁n ed</w>
en▁ tly</w>
comp▁an i▁es</w>
b udg
ai▁ gn</w>
acc ident</w>
▁stor ed</w>
▁res ource</w>
▁p ig
▁fin alized</w>
▁day time</w>
▁ar bitr
▁Swed en</w>
▁Res ources</w>
▁B loomberg</w>
▁3 9</w>
ve h▁
sec urity</w>
r ain</w>
et ely</w>
esti ons</w>
c▁ le</w>
c▁ ame</w>
critici z▁ed</w>
a▁r i▁
S eptember</w>
▁th a▁n</w>
▁rehab ilitation</w>
▁ob ject</w>
▁mas k</w>
▁jus tif
▁h ub</w>
▁f are</w>
▁cal m</w>
▁bid ding</w>
▁T or
▁Pre vention</w>
um a</w>
tic ularly</w>
s ep
prom ise</w>
li▁ st</w>
issu▁ es</w>
in ate</w>
g rou▁ps</w>
c el</w>
c and▁
b ery</w>
ar ely</w>
ar ch
Min i▁st▁ry</w>
I D</w>
Comm itte▁e</w>
2 .
▁th e▁y</w>
▁subst ances</w>
▁stea dy</w>
▁s essions</w>
▁pas tor</w>
▁dec isions</w>
▁bu yer</w>
▁Represent atives</w>
▁Con sumer</w>
vill a▁ge</w>
us ive</w>
t▁ ow
so▁ cial</w>
os t
m ail</w>
leg ▁al</w>
improv eme▁nt</w>
establis hme▁nt</w>
em ▁ed</w>
▁w ou▁ld</w>
▁un clear</w>
▁u ally</w>
▁pen ding</w>
▁n ations</w>
▁mill ions</w>
▁inten se</w>
▁decl ined</w>
▁Prosec utor</w>
u ff</w>
t t
pos ure</w>
poin ts</w>
p y▁o</w>
m▁ eans</w>
k a</w>
j u▁
ial ▁s</w>
i enc▁e</w>
gl obal</w>
g as</w>
f igh
ec tors</w>
d▁ ays</w>
c a▁rd</w>
b▁ et▁ter</w>
b rea▁
b oy
ar riv
I s</w>
E stablis
D on
▁st ating</w>
▁networ ks</w>
▁nerv ous</w>
▁mach ines</w>
▁bir ds</w>
▁appro pri
▁Ven ezuel
▁E as
▁Dong daemun</w>
w elfare</w>
un▁ der</w>
und ae</w>
op▁ er
insur an▁ce</w>
hear t</w>
hav i▁ng</w>
M al
5 8</w>
▁st ops</w>
▁experi encing</w>
▁equ al</w>
▁compens ate</w>
▁Pl an</w>
▁ ement</w>
ve▁ h
ta i▁n</w>
sa▁ f
rup t</w>
m i▁d
m ine</w>
it o▁rs</w>
ie▁ ve</w>
iev ed</w>
h▁ igh</w>
b▁ ro
ar▁ ound</w>
Jap a▁n
Indus t▁ry</w>
In ter
; d</w>
&ap▁os;▁ re</w>
▁y e▁ars</w>
▁w illingness</w>
▁requ esting</w>
▁produc ers</w>
▁depar ture</w>
▁Rev olution</w>
▁&apo▁s ;t</w>
sp ea
otten ham</w>
n e▁c
m i▁s
l▁ ead</w>
ir▁ st</w>
eval u▁
c▁ annot</w>
c ould</w>
applic ati▁on</w>
▁serv er</w>
▁rad io</w>
▁firef ighters</w>
▁evac u
▁decrea sing</w>
▁G e
sch oo▁ls</w>
ro ads</w>
ow ners</w>
is ▁e</w>
ins eng</w>
gl i▁sh</w>
fri e▁ndly</w>
ai▁n ing</w>
St ates</w>
L og
Con f
9 7</w>
▁s par
▁m eets</w>
▁fr ustr
▁bur d
▁Tai w
▁Stand ards</w>
▁P acific</w>
▁D e
w in▁
s▁ ome</w>
i▁ ving</w>
ir e▁ct</w>
exi▁st ing</w>
d ney</w>
d a
c▁ ut</w>
con tract</w>
Se ok</w>
D es
& q▁u▁ot;</w>
▁res ume</w>
▁pro longed</w>
▁pre ference</w>
▁m yst
▁i Phone</w>
▁expres sing</w>
▁ch emical</w>
▁ch eering</w>
▁P rem
▁Investig ation</w>
▁Ch ae</w>
▁&apos; t</w>
th i▁nk</w>
sur v
sh owi▁ng</w>
ri a</w>
red u▁ce</w>
prosec uti▁on</w>
ph oto</w>
is▁ is</w>
is ti▁cs</w>
g iv▁en</w>
em atic</w>
eff ect</w>
dro p</w>
der▁ ly</w>
c▁ r▁ea
comp an▁y</w>
ch▁ eon</w>
ch e▁rs</w>
ap artme▁nt</w>
ann o▁un
Presi▁d ent</w>
L ot▁te</w>
▁qu arters</w>
▁mov ements</w>
▁max im
▁im position</w>
▁crea tes</w>
▁b it
▁P anmunj
▁Ch e
▁Br itain</w>
tu▁r n</w>
t otal</w>
m en
i▁ll▁ ion</w>
fam o▁us</w>
ee▁ p</w>
di a</w>
cr▁ ea
as tically</w>
ad mi▁n
ack et</w>
6 3</w>
▁surv ival</w>
▁r ow</w>
▁pat terns</w>
▁law yers</w>
▁har der</w>
▁guarant eed</w>
▁cons ci
▁cam eras</w>
▁c ast</w>
▁br inging</w>
▁attrac tive</w>
▁acc eler
▁Y e</w>
vi e▁w</w>
th or
s▁c ale</w>
probl ems</w>
pos i▁
mea▁ su▁res</w>
m em
lo▁ c
is▁h ed</w>
h a▁r
h and</w>
e▁v ent</w>
ear ning</w>
comp▁ anies</w>
ch eck</w>
b ong</w>
a▁ir s</w>
a▁c tion</w>
azak h
Pol i▁ce</w>
P CO</w>
In stitute</w>
5 9</w>
5 1</w>
▁wh▁ ere</w>
▁trad ition</w>
▁t ools</w>
▁t ab
▁s id
▁re wards</w>
▁or dering</w>
▁l on
▁eng in
▁Par ticularly</w>
▁K inderg
▁Fr amework</w>
▁3 00,000</w>
▁2 4
wr itt▁en</w>
sa▁ le</w>
s am▁e</w>
qu ar▁
j oint</w>
i a
di e</w>
ch u▁l</w>
b▁ u▁t</w>
b▁ um</w>
O ne</w>
5 6</w>
▁w eb</w>
▁un likely</w>
▁s is
▁ch ances</w>
▁ch air</w>
▁ass istant</w>
▁a d▁
▁W inter</w>
▁M il
▁Cong ress</w>
▁Ass et</w>
v▁ ice</w>
transport ati▁on</w>
the▁ se</w>
ser▁ vice</w>
r id
m▁ ents</w>
l a▁ck</w>
k ets</w>
i an▁ce</w>
fo▁ ll
enc i▁es</w>
con stitu
con d
at▁ ure</w>
ann ers</w>
Y u</w>
T alk</w>
En▁g lish</w>
▁res ulted</w>
▁mor t
▁fr ame</w>
▁discharg ed</w>
▁ch ain</w>
▁Gu ard</w>
vehic l▁es</w>
un s</w>
tin ue</w>
presid e▁ntial</w>
or ders</w>
ma▁r k</w>
m ate</w>
k▁ n
it ude</w>
h▁ erein
fl u
c▁ an▁
bus in▁
aw ing</w>
at us</w>
D S</w>
&a pos▁;
▁underst ood</w>
▁un familiar</w>
▁ret ail</w>
▁publ ication</w>
▁laun ching</w>
▁interpre tation</w>
▁exc ited</w>
▁any where</w>
▁L ibrary</w>
ut▁ ure</w>
stud e▁nt</w>
pr▁o duct</w>
o▁u th</w>
o▁ ff▁ice</w>
is t▁s</w>
inst all
ic▁ ial</w>
i king</w>
h ope</w>
di▁ d</w>
der ful</w>
d in▁gs</w>
car ri▁ed</w>
bo▁r n</w>
a▁t t
a▁m ong</w>
az ▁
aud▁ it</w>
Institu t▁e</w>
H A
C C
B A</w>
A g▁
▁shou lder</w>
▁h a▁s</w>
▁f i▁rst</w>
▁dis pos
▁const ant</w>
▁autom atic</w>
▁Taek wondo</w>
▁KOS DAQ</w>
▁Arab ia</w>
wh▁ et▁her</w>
v ices</w>
trad it▁ional</w>
s k</w>
s ingly</w>
res tric
pr▁ od
on to</w>
om▁ an</w>
n e▁rs</w>
l iving</w>
je▁c ts</w>
h a▁nd</w>
e▁conom ic</w>
ex▁ pl
N A</w>
M oo▁n</w>
L ED</w>
Associ atio▁n</w>
▁sec onds</w>
▁res istance</w>
▁l uggage</w>
▁clin ical</w>
▁a p▁
▁a fraid</w>
▁K BS</w>
▁B ang
w▁ ould</w>
ul ty</w>
th▁ od</w>
sum ▁
pe▁ ri
p eace</w>
on▁ gs</w>
m yung</w>
k▁ ind</w>
i▁ ew</w>
iz z
ind u▁
er ge</w>
elec tr
des ign</w>
ca▁ st</w>
S he</w>
Prov ide▁d</w>
P ublic</w>
Intern▁ et</w>
A ir</w>
▁y o▁u</w>
▁y ea▁rs</w>
▁sup porters</w>
▁p apers</w>
▁n ▁
▁l isting</w>
▁inev itably</w>
▁in auguration</w>
▁for g
▁finis hing</w>
▁fair ness</w>
▁T ower</w>
▁Stud ies</w>
▁Han jin</w>
▁D MZ</w>
▁Ch an</w>
▁ tio▁n</w>
sl etter</w>
m▁ar▁ ket</w>
m an▁y</w>
i▁ ence</w>
f oo▁d</w>
e▁n ▁t</w>
ea c▁e</w>
com pens
ch▁ an</w>
aft▁ e▁r</w>
acc ep
I C</w>
1 0▁
0 8</w>
▁t aught</w>
▁spons ored</w>
▁sex ually</w>
▁refug ee</w>
▁psych ological</w>
▁p up
▁p ip
▁p ill
▁l od
▁k m</w>
▁invest or</w>
▁f er
▁ed ge</w>
▁disp atch</w>
▁b oom</w>
▁Taiw anese</w>
▁Jin ping</w>
▁D et
▁Bi o
w oo▁k</w>
w ife</w>
vi ation</w>
s ex</w>
regar di▁ng</w>
pro mo
pro bl▁em</w>
n ▁s</w>
jo▁ in</w>
f▁ ore</w>
em ployees</w>
e ur</w>
a▁mp ;</w>
a▁l ways</w>
a▁c tive</w>
ac▁ k
ac ing</w>
201 2</w>
▁tri ps</w>
▁se izure</w>
▁schol ars</w>
▁ph armaceutical</w>
▁ob jects</w>
▁hea ded</w>
▁eg gs</w>
▁C redit</w>
▁B each</w>
re▁ v
retur n▁ed</w>
prin ci
ess ly</w>
d ed
ch airper
ad a</w>
acc ou▁n
H ak</w>
Ch airman</w>
,0 00
▁pre d
▁fl uctu
▁det ention</w>
▁dep end
▁ch e▁ck</w>
▁Kw ak</w>
sy n
sh a▁r
p▁ ur
n eg▁
l ost</w>
l eep</w>
ill io▁n</w>
cour se</w>
communic ati▁on</w>
M S</w>
Lea g▁ue</w>
Eng ine
10 ▁th</w>
&ap▁os; t</w>
▁step ped</w>
▁princi ples</w>
▁pr aised</w>
▁decor ated</w>
▁attor ney</w>
▁S a
y▁ er</w>
ye e▁s</w>
y ang
str en▁g
se▁ veral</w>
perfor▁m a▁nce</w>
partic▁ip▁ ate</w>
ou▁ ght</w>
os a</w>
off▁ ic
m ilitary</w>
k eep</w>
in▁ ation</w>
hos ▁p
even th</w>
cl e▁ar</w>
az y</w>
ap▁ er</w>
an tic</w>
Administr ati▁on</w>
2 3
. &apos;</w>
▁th r
▁magaz ine</w>
▁l angu
▁ill ness</w>
▁bull etin</w>
▁S BS</w>
▁Holl ywood</w>
▁&▁ a
us e▁d</w>
ti▁ ms</w>
tion ary</w>
sy s▁tem</w>
s n
progr a▁ms</w>
pr o▁t
in conven
if elong</w>
here i▁n
gu k</w>
fe▁ ll</w>
e ffic
compl et▁ed</w>
ch ▁ul</w>
b▁e▁ come</w>
H o</w>
Elec tr▁
Elec tron
▁under way</w>
▁subsid ized</w>
▁str ict</w>
▁sc r
▁p eac
▁immigr ation</w>
▁deteri or
▁c art
▁Em bassy</w>
▁4 1</w>
v ent
u▁n g
tr aining</w>
tic es</w>
su▁l a</w>
sh in</w>
ri e▁d</w>
r an▁ge</w>
pro▁ c
prov i▁ncial</w>
p ub▁lic</w>
p etr
oun g
osp el</w>
op▁ in
o T</w>
n eeded</w>
i▁ sion</w>
it er</w>
id ation</w>
he▁ at</w>
gover▁n m▁ent</w>
fu▁ nd</w>
fin ancial</w>
em p▁
d oll
comp etition</w>
ch▁ ange</w>
ail ing</w>
▁threa tened</w>
▁t astes</w>
▁sear ching</w>
▁pre ferred</w>
▁n ob
▁in land</w>
▁grand mother</w>
▁affili ates</w>
▁M emor
▁5 00,000</w>
▁4 3</w>
w alk</w>
u▁ p
um p
t▁ic l▁e</w>
s o▁n
pr ac▁
ot▁ h
ir o</w>
gr a▁de</w>
fail ▁ed</w>
ee▁ ch</w>
econ▁ omic</w>
ea c▁h</w>
d▁ ro
E C</w>
0 7</w>
▁w e▁ll</w>
▁part ners</w>
▁ow nership</w>
▁n etizens</w>
▁le g</w>
▁dis tribute</w>
▁d awn</w>
▁compl ained</w>
▁arriv al</w>
▁D oo</w>
w a
sh r
pro jec▁t</w>
play ▁er</w>
ou t▁h</w>
och ang</w>
m▁ark ▁et</w>
m ach
it cher</w>
in stitu▁
corpor a▁te</w>
con d▁
Su w▁on</w>
C en▁ter</w>
▁s ells</w>
▁r oles</w>
▁n ights</w>
▁ar ms</w>
▁N A
um▁ p</w>
stat▁ us</w>
ris k</w>
reg ul▁
prof it</w>
mit t▁ed</w>
j un</w>
il▁l i▁on</w>
ill er</w>
h o▁s
d ang
an▁ ding</w>
▁trav el
▁t ied</w>
▁sh ift</w>
▁sh eet</w>
▁gen re</w>
▁en coun
▁driv en</w>
▁T w
▁Se o▁ul</w>
▁Offic er</w>
▁D oc
sh ed</w>
sched ul▁ed</w>
pr▁o j▁ect</w>
ot t</w>
langu a▁ge</w>
f ee</w>
es t▁s</w>
ea▁ sy</w>
crea t▁ed</w>
cas ▁e</w>
9 4</w>
▁wors ening</w>
▁inv ent
▁absol ute</w>
▁Pro perty</w>
▁Ex pressway</w>
y angju</w>
r ain
pl a▁n</w>
p u▁sh</w>
mis sions</w>
hw amun</w>
f ers</w>
e ve</w>
d e▁r
con fi▁r
c alled</w>
at al</w>
ab il▁
P o▁l
G eum
Ch eo▁ng</w>
A▁r ti▁cle</w>
▁l ending</w>
▁f i▁
▁c a▁
▁boo ths</w>
▁b ad
▁att ach</w>
▁aspec ts</w>
▁Kak a
▁Austral ian</w>
▁An yang</w>
y an▁g</w>
w▁ ays</w>
us▁ ing</w>
ust me▁nt</w>
tour i▁sm</w>
ter ies</w>
og r▁
oc▁ k</w>
mov ie</w>
meas ure</w>
m ain▁
it t▁ed</w>
gi ene</w>
g ames</w>
e▁r al</w>
dr am
dis crimin
c▁ hed</w>
a▁c c
at▁ a</w>
al ition</w>
a el</w>
▁t esting</w>
▁sup er</w>
▁rel atives</w>
▁prot ected</w>
▁in fr
▁encour aging</w>
▁Cap ital</w>
▁B er
w ar▁
sh▁ ot</w>
mat eria▁ls</w>
m as
i▁ c▁h</w>
h eon</w>
f our▁th</w>
d ow▁n</w>
cont ent</w>
conc er▁
commer ci
bo a▁rd</w>
a▁ ds</w>
ar ts</w>
U V</w>
O ctober</w>
▁show case</w>
▁ship building</w>
▁r o▁
▁k id
▁instruc tor</w>
▁g am
▁discus sing</w>
▁depos its</w>
▁b acter
▁O ver</w>
▁Manag er</w>
▁G ov.</w>
us ▁es</w>
se i</w>
ri ble</w>
i▁t te▁e</w>
etw ork</w>
c ateg
and a</w>
S afe▁ty</w>
D A</w>
& amp▁;</w>
▁h al
▁S c
▁Indones ian</w>
▁Gim hae</w>
▁&a▁ pos;
x y</w>
w▁it h▁in</w>
t▁h y</w>
pon se</w>
on▁ t</w>
in ni▁ng</w>
im ent</w>
g ung</w>
f ound</w>
etropo▁l itan</w>
coun sel
ca▁l led</w>
cau g▁ht</w>
b▁ udget</w>
at▁ eg
atten ded</w>
S▁ ec
Rus sia</w>
K▁or e▁an</w>
G ove▁rn
C O
▁vis a</w>
▁sw ing</w>
▁rea ction</w>
▁r ank</w>
▁pres erve</w>
▁pour ed</w>
▁inter ven
▁gr ateful</w>
▁T ri
▁A wards</w>
w ay▁s</w>
v▁ er</w>
u is
st ar</w>
re▁c e
respon▁ se</w>
rea di▁ng</w>
pri▁ vate</w>
our▁ se</w>
oph is
og▁ n
ocr▁ atic</w>
o th▁
o ffer
n or▁
l▁ arge</w>
indus tr▁y</w>
gr▁ ow
g ye</w>
fl ix</w>
f ol▁
establis ▁h
con f▁ir
Pro▁v ince</w>
H an▁
D o▁ng</w>
▁techn iques</w>
▁targ eting</w>
▁supervis or</w>
▁out lets</w>
▁n on
▁log ic</w>
▁fres h
▁flav or</w>
▁categ ories</w>
▁am azing</w>
▁W ol
▁ME RS</w>
z o</w>
v▁ ir
s▁ s</w>
s▁ h</w>
sum mer</w>
spec if▁ic</w>
sp ir
fl ow</w>
ev i▁d
dam age</w>
corp▁or ate</w>
chil d▁ren</w>
c entr▁al</w>
b▁ ased</w>
b ok
air▁ man</w>
▁sn acks</w>
▁pun ished</w>
▁proc esses</w>
▁jum ped</w>
▁in sur
▁fi re
▁exemp ted</w>
▁chec ks</w>
▁Tr aining</w>
▁R ail
▁Ind eed</w>
▁2 50</w>
ven ue</w>
t e
son nel</w>
rea d▁y</w>
pop ul
it ory</w>
h ea▁r
em an</w>
ec▁ te▁d</w>
du ▁e</w>
dev e▁lop
d on▁
ar ms</w>
ab ou▁t</w>
U▁ S</w>
Rep resent
Nov emb▁er</w>
N ovember</w>
M C</w>
F ebru
Am e▁r
▁shou ldn</w>
▁mus cles</w>
▁l o▁
▁communic ations</w>
▁M O
▁L ord</w>
▁J ourn
▁200 4</w>
w at▁
v▁ i
v▁ en
un te▁
t un
re vi▁ew</w>
r at▁e</w>
p▁ re▁
ou l
m ye▁on</w>
increa sed</w>
hy ▁e</w>
grow i▁ng</w>
f▁ir s▁t</w>
es tic
end ations</w>
eas ures</w>
div isi▁on</w>
Sp▁ec ial</w>
A▁r t</w>
8 ▁th</w>
8 4</w>
20 ▁th</w>
▁repres ent</w>
▁mot or</w>
▁langu ages</w>
▁inn oc
▁cons isting</w>
▁chec k
▁ch arm</w>
▁bur ied</w>
▁abol ition</w>
▁B io</w>
▁Afr ican</w>
▁4 4</w>
veh ic▁le</w>
urr ing</w>
t▁ in▁g</w>
rup ti▁on</w>
mak ers</w>
m un
g a</w>
co▁m m▁
cl u▁d
ch em
a▁m p</w>
ad vis
P▁ ublic</w>
E co▁n
6 6</w>
▁t eeth</w>
▁rec all</w>
▁m alls</w>
▁inv ite</w>
▁di esel</w>
▁de ployed</w>
▁conven tion</w>
▁c au
▁Trea sury</w>
▁T our</w>
▁R ef
w arm</w>
un til</w>
sm artph
resid▁ ents</w>
rel ations</w>
re vi▁
on als</w>
ma i▁n
aul o</w>
amm ar</w>
accus ▁ed</w>
Sec reta▁ry</w>
J un</w>
Da egu</w>
6 2</w>
▁sp ots</w>
▁person ally</w>
▁l ev
▁is▁ sue</w>
▁appl iances</w>
▁V al
▁S ung
▁M el
▁F u
t▁er m</w>
t ou
t elecomm
s▁ h▁
st ern</w>
rec ently</w>
p▁ ric
pos▁ al</w>
o▁ s▁
og n▁
m iddle</w>
ic ted</w>
exhib iti▁on</w>
en tic
comm▁ ittee</w>
app▁ rov
al ties</w>
V ill
N▁ o.</w>
D irector</w>
A E</w>
▁writ ers</w>
▁week ly</w>
▁tal ents</w>
▁succ ession</w>
▁sem i</w>
▁see kers</w>
▁r igh▁t</w>
▁i sol
▁ex ists</w>
▁dis ▁
▁Wh ether</w>
▁P ay</w>
▁Med ia</w>
▁Ex pec
▁D omestic</w>
▁B udget</w>
r▁ o</w>
rel at▁
ox ide</w>
ol ved</w>
oc▁ ks</w>
manag ▁er</w>
fi x
cr ime</w>
c ente▁r</w>
b en▁
b al▁l</w>
aw ar
ans w
O C</w>
L ab▁or</w>
I CT</w>
Am eric
9 6</w>
5▁ 0</w>
&a▁po▁s ;▁s</w>
▁wor ship</w>
▁w oo</w>
▁t ells</w>
▁struc tural</w>
▁restric tion</w>
▁resc ued</w>
▁mist akes</w>
▁hea ted</w>
▁contro lled</w>
▁a ired</w>
▁U.S.- North</w>
▁H am
▁Egyp t</w>
ul s
uc ky</w>
str eng▁
sta▁ ff</w>
r at▁
p us
o▁ int</w>
l▁ iving</w>
ivers a▁ry</w>
investig▁ at▁ion</w>
ill i
h▁erein aft▁er</w>
fu▁r ther</w>
fri ends</w>
d u</w>
b▁ eg
b u▁r
al▁ y
al tern
▁symb ol</w>
▁sm a▁ll</w>
▁sign ature</w>
▁heal ing</w>
▁foot age</w>
▁exam s</w>
▁des irable</w>
▁ch ocolate</w>
▁Sh ip
▁Inst agram</w>
▁D a</w>
▁Con ference</w>
w▁h a</w>
un gh
t▁ ro
tal ks</w>
tain me▁nt</w>
sing▁ le</w>
ph o▁ne</w>
or iz
off i▁c
loc ated</w>
lear ni▁ng</w>
jo▁ o</w>
i▁ ti▁es</w>
ib l▁e</w>
h appy</w>
er▁ at▁ion</w>
dis ast▁er</w>
develo▁p ment</w>
constru▁c tion</w>
b i</w>
an ting</w>
S D</w>
S CO</w>
1 .▁
▁taxpay er</w>
▁t e▁r
▁sl ump</w>
▁s um</w>
▁prof itability</w>
▁p itcher</w>
▁p ack</w>
▁manip ulation</w>
▁i m▁
▁emb arr
▁d il
▁ag es</w>
▁Se ungri</w>
▁S an</w>
▁5 0
w or▁th</w>
v▁ er
v ily</w>
t y
t om▁
res u▁lt</w>
pre fer
ok en</w>
n▁ ov
m u</w>
ky u▁ng</w>
int ell
ilat eral</w>
f▁ ourth</w>
fe▁ es</w>
ex tr
d augh
cl▁ ud
be t▁wee▁n</w>
administr▁ ative</w>
St ud
In nov
Dis trict</w>
7 7</w>
▁seas ons</w>
▁represent ing</w>
▁n am</w>
▁gu ardian</w>
▁a▁ fter</w>
▁ab or
▁Trans portation</w>
▁Pl aza</w>
▁Int egr
w a▁n</w>
t▁im ▁e</w>
tur ▁al</w>
spe▁ ci
sec retary</w>
i▁t ary</w>
int▁er est</w>
g rou▁p</w>
fee▁ l</w>
f a
equ ality</w>
bus i▁n
S ol
In c▁heon</w>
Administr ati▁ve</w>
;▁ m</w>
▁wat ers</w>
▁w e
▁supervis e</w>
▁re tr
▁poll ut
▁direc tions</w>
▁air line</w>
▁advant ages</w>
▁O pen</w>
▁K imchi</w>
▁Ex hibition</w>
▁7 5</w>
t▁h er▁e</w>
sup po▁r
pr▁ event</w>
poin▁ ts</w>
m▁ ust</w>
li ance</w>
k ind</w>
inter▁ es▁ted</w>
inc▁ rea▁se</w>
each ment</w>
d▁ ev
del i▁
c▁ ri
b▁ eh
ar▁t m▁ent</w>
Th ere</w>
L e▁
G e▁n
6 4</w>
▁r ot
▁out break</w>
▁ess ay</w>
▁em issions</w>
▁Confuc ian</w>
ti f▁
su ally</w>
str ess▁ed</w>
p ic▁
on ze</w>
olo▁g ical</w>
my u▁ng</w>
me▁ as
in▁ st▁
ic▁ at▁ion</w>
empl o▁
d emocr
ch e▁d</w>
adv ance</w>
J o▁ng</w>
D▁ a
20▁1 6</w>
&a▁p▁os ;m</w>
▁tr uly</w>
▁star tup</w>
▁sew age</w>
▁n arrow
▁mo tiv
▁miss ile</w>
▁lif ted</w>
▁k i</w>
▁increa singly</w>
▁ap par
▁Tr ad
▁Cheong do</w>
▁10 0th</w>
situ▁ at▁ion</w>
pr▁o ject</w>
produc ▁ed</w>
p ower
nec e▁ss
l a</w>
j un
i u▁m</w>
h▁ ot</w>
g row</w>
g ate</w>
e▁c t▁ion</w>
enti onal</w>
c▁l os
bu▁ k</w>
b ri▁
M oo</w>
8 6</w>
▁r oot</w>
▁produc tivity</w>
▁inquir y</w>
▁har mon
▁h itting</w>
ul▁ y</w>
throu▁ g▁h</w>
s pr
s essi▁on</w>
r is▁
ky un▁g</w>
i▁ red</w>
h▁el p</w>
g am▁e</w>
f a▁ll</w>
ex▁ pec
d ai▁ly</w>
chang ▁ed</w>
b▁ etter</w>
burs ement</w>
ad ong</w>
ab ol
P re▁sid
F est▁
▁spec ulation</w>
▁U U</w>
y outh</w>
uti n</w>
ta▁ ek</w>
s▁ec on▁d</w>
s▁ id
su ff▁
refe▁r r▁ed</w>
pre▁ ss
pr ic▁es</w>
m▁ anag
j on▁g</w>
ir eless</w>
invest ment</w>
id eo</w>
g a▁n
end ants</w>
c▁ as
beco▁m ▁e</w>
ay o▁r</w>
au g▁h
arant ine</w>
ar ▁s</w>
al ed</w>
Dec emb▁er</w>
Aug u▁st</w>
5 4</w>
▁w ash</w>
▁ter rit
▁tax ation</w>
▁sil ver</w>
▁sal t</w>
▁res ort</w>
▁pat rol</w>
▁minis ters</w>
▁mach inery</w>
▁explos ion</w>
▁d ancing</w>
▁con clude</w>
▁W ang</w>
▁Dong jak</w>
y▁ et</w>
sum mi▁t</w>
stu▁ dy</w>
sent enc▁ed</w>
sc en
rev ealed</w>
requ e▁st</w>
re d▁uc
ou ble</w>
ook ie</w>
on▁ ment</w>
me▁ etin▁g</w>
i an
f▁ ar</w>
fi▁r s▁t</w>
ell ed</w>
def en▁se</w>
d .</w>
co a▁ch</w>
ch a▁n
ac he</w>
G rou▁p</w>
▁won derful</w>
▁t ox
▁str et
▁str eam</w>
▁po is
▁phr ase</w>
▁out look</w>
▁mathem atics</w>
▁dis tur
▁B ong</w>
ye on
work er▁s</w>
tr end</w>
s▁ enior</w>
pers▁ on
mo▁n th</w>
l▁ ack</w>
k ly</w>
f ul
ev ision</w>
eong buk</w>
d▁ ec▁
distr ib▁
dep art▁
c▁ enter</w>
con t▁r
compl eted</w>
b ac▁k</w>
at mos
adv a▁n
Se ong</w>
Dec r▁ee</w>
▁str ic
▁str aw
▁rec overed</w>
▁l abor
▁k ind
▁integr ation</w>
▁inj uries</w>
▁initi ally</w>
▁in appropriate</w>
▁hea twave</w>
▁h urry</w>
▁fri endship</w>
▁consult ative</w>
▁Y eong</w>
▁St ock</w>
▁K n
sen ior</w>
sec t▁or</w>
sch ol
reg istr
receiv i▁ng</w>
p▁ ower</w>
lim ited</w>
inter est</w>
fir m</w>
e▁c tive</w>
ever y▁
en c▁es</w>
dus try</w>
dr a▁ma</w>
d i▁c
cer emony</w>
Econ o▁my</w>
0 1</w>
▁sp ot
▁sp eaker</w>
▁pr ayer</w>
▁p ine</w>
▁fl ights</w>
▁cons ervation</w>
▁compon ents</w>
▁compl eting</w>
▁bl ow</w>
▁T ottenham</w>
▁N ak</w>
▁Kinderg arten</w>
s▁ ee▁
special iz▁ed</w>
mem▁ bers</w>
int▁ern al</w>
ing re
h eat</w>
g il</w>
en j▁oy</w>
discu▁ ss</w>
d ated</w>
cor rec
c iti▁
b i▁ll</w>
appro pri
M ot
7 2</w>
▁scienti fic</w>
▁pr▁ ice</w>
▁encour aged</w>
▁en able</w>
y▁ st
w th</w>
shar ehol
pro perly</w>
pr ic▁ed</w>
oppos▁ ition</w>
leg isl
lea der</w>
if i▁c
hy up</w>
fin ite</w>
e▁ au</w>
ec os
e uk
d▁ irec
d▁ ef
dep artment</w>
ag a▁inst</w>
ac k▁
Serv ice</w>
S en
B as
▁t ens</w>
▁symb ol
▁n or
▁exc iting</w>
▁clou ds</w>
▁clos ure</w>
▁J ames</w>
▁Gwang hwamun</w>
▁Fin ally</w>
▁Ben to</w>
v ic▁
thr▁ oug▁h</w>
streng th▁en</w>
pri▁ se</w>
m ix
in▁ clud
hy th
hou s▁es</w>
gre▁ en</w>
g age</w>
alifor nia</w>
Ph il
E U</w>
&a p▁o▁s
▁w ishes</w>
▁ther apy</w>
▁inform atization</w>
▁dor mit
▁disapp ear</w>
▁def eat</w>
▁cos t
▁ath l
▁ag ents</w>
▁Chung buk</w>
▁Argent ina</w>
ti▁ c</w>
si▁ d
s ize</w>
r▁ ights</w>
re ported</w>
or▁ d
mi▁n imu▁m</w>
in▁ clu▁
inves▁ tment</w>
il▁ ar</w>
cos ts</w>
comp▁ an▁ies</w>
Prov▁ inc▁e</w>
C E▁
Ar t▁
▁super ior</w>
▁prot ecting</w>
▁objec tive</w>
▁dr one</w>
▁Chun cheon</w>
so▁ ci
sk in</w>
sec ti▁on</w>
priv ileg
pl eas
p ical</w>
i▁ ev
hom ▁e</w>
ex hib▁
es it
dem and</w>
comp eti▁
comm un▁
ce▁n ter</w>
ar▁ ly</w>
Oct ob▁er</w>
E ur▁
D▁ ec
9 ▁th</w>
6 ▁th</w>
▁w ealth</w>
▁real istic</w>
▁pic ked</w>
▁l ighting</w>
▁ch art</w>
▁St ar</w>
▁S sang
▁H ope</w>
▁Ch i▁na</w>
▁Bu ilding</w>
tro versy</w>
sm oki▁ng</w>
s ale</w>
or al</w>
n orthe▁rn</w>
h▁ ome</w>
e▁m ber</w>
ec tion
c▁h ange</w>
ati on▁
an ity</w>
O r▁
Lib▁ erty</w>
K R▁W</w>
Comm it▁tee</w>
A f▁f
▁t onight</w>
▁sur prise</w>
▁prin t</w>
▁pl edge</w>
▁manufactur er</w>
▁def ined</w>
▁coun sel</w>
▁bott le</w>
▁a uction</w>
▁Yeong deungpo</w>
▁Y on
▁F ed</w>
ye▁ ong</w>
p▁os e</w>
p▁l ay</w>
or g▁an
n▁ ext</w>
l▁ ong</w>
f▁ fer
e▁ up</w>
exper ience</w>
exp e▁n
distribu ti▁on</w>
dis abl▁ed</w>
diff▁er en▁t</w>
de▁ s
devel▁ op
brea k
bel iev
adem▁ ic</w>
N o▁
▁t a▁
▁in sp
▁ha bit
▁h a▁ve</w>
▁green house</w>
▁fl ood</w>
▁every where</w>
▁democr atic</w>
▁dem ol
▁con stitutional</w>
▁appl ies</w>
▁Sun cheon</w>
▁K B</w>
▁J a</w>
u ating</w>
tr a▁ck</w>
s ymp
ph y▁
pen ses</w>
o▁r ed</w>
ot▁ ion</w>
in i</w>
h arm
f an</w>
ex p▁er
er e▁d</w>
emplo▁y ment</w>
d ev▁el
M a▁
M ayor</w>
H u
G e
E a▁st</w>
▁w ood</w>
▁vis ual</w>
▁recru iting</w>
▁por tra
▁gu ards</w>
▁exc ep
▁esc al
▁chil dhood</w>
▁4 6</w>
▁&▁ a▁mp;</w>
w▁ an▁
th rea
s▁ ec▁
sti ce</w>
rec▁ eiv
ol▁ ved</w>
k es</w>
in e▁d</w>
in ent</w>
ign ity</w>
ic ian</w>
hea▁ ds</w>
g▁ l
f inal</w>
est yle</w>
est a▁
enc ement</w>
en ly</w>
d a▁m
c ore</w>
c ars</w>
be▁c a▁us▁e</w>
a▁ ld</w>
as t▁ic</w>
Sm a▁ll</w>
K O
6 7</w>
▁wor n</w>
▁t o▁t
▁surv ive</w>
▁str ea
▁ref unded</w>
▁o ri
▁meas urement</w>
▁l ie</w>
▁fro zen</w>
▁foun der</w>
▁comm encement</w>
▁camp ing</w>
▁bel ongs</w>
▁after math</w>
up yeong</w>
ul ent</w>
t led</w>
rep▁ or▁ted</w>
pur su▁
pro▁ du▁c
prev e▁n
pl a▁y</w>
o▁r ry</w>
oper a▁te</w>
ool ▁s</w>
m al
l▁ ea▁
k y▁u</w>
impo▁r t▁ant</w>
im ▁e</w>
h uge</w>
g ap</w>
fam ilies</w>
exec u▁
equ ▁
conf e▁r
c enter▁ed</w>
announ ceme▁nt</w>
am ▁s</w>
ad i▁um</w>
K won</w>
For ei▁gn</w>
▁wal ked</w>
▁t ool</w>
▁sc ri
▁s ing</w>
▁pursu ed</w>
▁promp tly</w>
▁p r▁es
▁fi x</w>
▁e ▁
▁cont ext</w>
▁R eal
▁Hu h</w>
▁& amp;</w>
un iversi▁ty</w>
st and</w>
so ft</w>
si t▁es</w>
sh▁ op</w>
s exual</w>
ra▁ in</w>
rank ▁ed</w>
ph y</w>
o▁ ms</w>
i▁m p▁
f▁ ood</w>
et w▁een</w>
eo ju</w>
e u▁p</w>
at or
O lymp
J ang
C en▁
▁wid th</w>
▁r arely</w>
▁prin ting</w>
▁p ure</w>
▁dismis s</w>
▁conduc ts</w>
▁comm ander</w>
▁c ats</w>
▁aud itor</w>
▁F ootball</w>
▁Ear th</w>
sh ot</w>
probl e▁ms</w>
pro c▁
plac ▁e</w>
op pos
n is</w>
iti s</w>
in▁ ter
gre ement</w>
fur th▁er</w>
ff ers</w>
ex po▁rt</w>
div ision</w>
cili ation</w>
ati n</w>
O l
O c
N▁ am</w>
&apo▁s ;t</w>
▁th reat</w>
▁simultan eously</w>
▁sc at
▁progres sive</w>
▁observ ation</w>
▁f a▁
▁experim ent</w>
▁conven ed</w>
▁concentr ate</w>
▁bel t</w>
▁be t▁ween</w>
▁H ae
▁Expec tations</w>
▁Canad ian</w>
▁Bur ning</w>
▁A rea</w>
p▁ ri▁
p▁ ing</w>
g ar
ex ist</w>
ep▁ t</w>
dro me</w>
ce▁r tain</w>
c ivil</w>
b▁ usiness</w>
B o
2▁ 00
▁recycl ing</w>
▁pro p
▁pat ri
▁h obby</w>
▁dis trib
▁des c
▁Comm unications</w>
sh owed</w>
oo th
k▁ yu</w>
insu▁r ance</w>
e▁ p
e▁ o</w>
e iling</w>
de▁ l
comm erc
ap o▁s▁
W ar</w>
Janu a▁ry</w>
8 9</w>
6 1</w>
2 4
▁y ear▁s</w>
▁toil et</w>
▁retur ns</w>
▁r ank
▁pi ano</w>
▁expres sions</w>
▁ex empl
▁correc tive</w>
▁class room</w>
▁cl ar
▁U sually</w>
▁Republ ican</w>
▁P rivate</w>
▁N atur
▁M yeong
▁Ital ian</w>
to▁ wn</w>
s en▁
r▁ea s▁on</w>
prosec ution</w>
po▁p ular</w>
p port</w>
omer ates</w>
m▁ ove</w>
inc re▁as
emer▁ gency</w>
el ig
br an▁ch</w>
as ▁h
M E</w>
I ▁n</w>
Gyeon▁g gi</w>
▁un ified</w>
▁th inks</w>
▁tax is</w>
▁reg ret
▁mission ary</w>
▁influ enced</w>
▁hear ts</w>
▁gradu ated</w>
▁frequ ency</w>
▁def ects</w>
▁cover age</w>
▁c alligrap
▁bl oss
▁b e▁c
▁at tributed</w>
▁Sou thern</w>
▁Mok po</w>
▁Inter ior</w>
▁Eas tern</w>
▁A round</w>
wor l▁d</w>
vi ew▁
v ation</w>
t▁ aking</w>
tr▁ ib
ter▁ m</w>
tec h▁n
sup porti▁ng</w>
st ay</w>
mov ▁ed</w>
l▁ and</w>
l i▁n
i▁n ter
if ted</w>
id ers</w>
es h</w>
ear cher</w>
N o</w>
J u</w>
Dis t▁rict</w>
C s</w>
A sian</w>
8 7</w>
6 8</w>
▁t all</w>
▁system atically</w>
▁r itual</w>
▁open s</w>
▁j in</w>
▁effec tiveness</w>
▁descri bed</w>
▁O ut
▁Ac tually</w>
z er
y un▁g</w>
t een
st ro
sid ▁
r▁eal l▁y</w>
n▁ ational</w>
natur ▁al</w>
h all</w>
g ress</w>
foll ow▁ed</w>
esti m
es ti▁ng</w>
erm al</w>
environ ment▁al</w>
emp▁l oy
educ a▁tion</w>
ea uty</w>
d▁uc t</w>
dis trict</w>
c op
b i▁g
a▁t t▁
a▁n ds</w>
aw a▁y</w>
agre▁ ed</w>
J a▁n
Gang w▁on</w>
F und</w>
B▁ usan</w>
▁ul tra</w>
▁th e▁r▁e</w>
▁text books</w>
▁peti tion
▁ec ological</w>
▁contr ast</w>
▁confir ming</w>
▁bel ief</w>
▁Per haps</w>
▁Oper ation</w>
▁For tress</w>
w ea▁
se▁ t</w>
rec o▁
j ourn
i▁ li
imb ap</w>
ic ked</w>
f a▁r</w>
emb le</w>
cl▁ ub</w>
at te▁nd</w>
at ever</w>
Unive▁r sity</w>
S u</w>
L abor</w>
K ong</w>
Japa▁n ese</w>
&▁qu ▁o▁t;</w>
# 9
▁up date</w>
▁transpar ent</w>
▁relation ships</w>
▁men us</w>
▁l ying</w>
▁fir ed</w>
▁comm and</w>
▁att acks</w>
▁additi onally</w>
▁N ations</w>
▁Cath olic</w>
▁Bas ic</w>
▁B esides</w>
▁7 00</w>
vers eas</w>
tak en</w>
rea l▁
produc tion</w>
or ities</w>
in y</w>
in st▁
il▁ d</w>
ic ro</w>
denuclear izati▁on</w>
co▁ l
cont e▁nt</w>
a▁m es</w>
Se▁ ou▁l</w>
I FA</w>
Hw as
▁t ower</w>
▁rel ics</w>
▁o cean</w>
▁fl at</w>
▁del inqu
▁agre ements</w>
▁F uture</w>
w oman</w>
ur▁ r
ung er</w>
th ink</w>
s us▁
pr▁o duc
pe▁r c▁ent</w>
m il▁lion</w>
ign s</w>
fort ably</w>
facil itie▁s</w>
br a▁nd</w>
ati tude</w>
and o</w>
ab ies</w>
K w▁on</w>
I l</w>
A R
▁wh oles
▁viol ent</w>
▁sec tions</w>
▁sav ing</w>
▁publ ishing</w>
▁lec tur
▁l ap
▁j unior</w>
▁hea vily</w>
▁design er</w>
▁co astal</w>
▁b orrow</w>
▁ar med</w>
▁S iheung</w>
▁Gun san</w>
▁E X
▁Con test</w>
▁200 2</w>
ti ll</w>
tax i</w>
s▁ el
str▁ y</w>
r▁ul ing</w>
p▁er▁ son</w>
pop ular</w>
p ea▁ce</w>
o▁ cr
n ae</w>
l iter
ic on</w>
d▁ irect</w>
condu▁c t</w>
b or▁
a▁t eg
ati▁ c</w>
am ation</w>
Wh en</w>
P C</w>
H os
En gli▁sh</w>
4 00</w>
2▁ 00</w>
▁vir us</w>
▁t elling</w>
▁re plied</w>
▁p izza</w>
▁fulf ill</w>
▁f em
▁f ant
▁entreprene urs</w>
▁e at
▁dep ression</w>
▁defin itely</w>
▁c ope</w>
▁b ul
▁Elec tric</w>
v ulner
po▁ or</w>
ow▁ n
n ur
i▁s s▁
it▁ ted</w>
in c▁l
il iti▁es</w>
i o▁r</w>
cl ean
chi▁l dren</w>
ativ e▁ly</w>
at ar</w>
al▁ led</w>
ai▁ led</w>
T BC</w>
P ea▁ce</w>
P O</w>
Jap anese</w>
Dis tric▁t</w>
C▁ omm
▁wit ness</w>
▁wh er▁e</w>
▁tex ture</w>
▁t ies</w>
▁st amp</w>
▁rem ark
▁photograp hs</w>
▁mass age</w>
▁instr uments</w>
▁func tional</w>
▁fl ying</w>
▁D okdo</w>
ur ban</w>
st an▁d
si onal</w>
p e▁r</w>
over ty</w>
op p▁os
on s▁
m eal</w>
i al▁ly</w>
hist or
fac tory</w>
ex▁ per
c over
b etter</w>
ar▁ ts</w>
al y▁
T ec
3▁ 00</w>
▁surv eys</w>
▁s u</w>
▁pr▁ o
▁p ays</w>
▁judg ing</w>
▁jud iciary</w>
▁journ alists</w>
▁ex posure</w>
▁c ar▁
▁b ound
▁b e▁g
▁b att
▁Techn o</w>
▁Coun cilor</w>
▁B al
yo▁ nd</w>
tur ned</w>
th o▁
t less</w>
sub m▁
sk ills</w>
rec o▁rd</w>
pr is▁on</w>
pers on▁al</w>
organiz ations</w>
ogr am</w>
n ity</w>
lo an</w>
h ospital</w>
f oot</w>
d▁ is▁
di▁ rec
di ed</w>
conv e▁n
c i▁ng</w>
b ill</w>
a▁l ue</w>
ap p▁l
Jos e▁on</w>
En tr
7 9</w>
18 ▁th</w>
▁s▁ ince</w>
▁sup plement</w>
▁reg eneration</w>
▁pow der</w>
▁p ep
▁mon opol
▁j u</w>
▁high way</w>
▁al g
▁Se odaemun</w>
▁Po cheon</w>
▁Mex ican</w>
▁G ame</w>
y▁ ear▁s</w>
v oc
u▁ r</w>
us hing</w>
t▁ alk</w>
st o▁ck</w>
st one</w>
sh ing</w>
res▁ earch</w>
o▁ per
os es</w>
or ds</w>
l ow
i▁ ke</w>
issi o▁n</w>
in e▁s</w>
eti es</w>
el der▁ly</w>
direc ▁
R u▁s
Coun ci▁l</w>
1▁ 5</w>
▁uni forms</w>
▁u tion</w>
▁trav eled</w>
▁sh ower</w>
▁div or
▁Re form</w>
▁Nav y</w>
▁Braz ilian</w>
▁2 .5</w>
y gen</w>
tr e▁ss</w>
ti st</w>
sur es</w>
sch oo▁l</w>
r▁ eg▁
pr▁o f
o▁ il</w>
n e▁r</w>
j ▁un</w>
j uris
infl▁ u
hou ses</w>
herein a▁fter</w>
h im
h a▁ll</w>
e▁c ts</w>
establis hed</w>
es h
d▁ es▁
con trib
bus▁in es▁s</w>
azakh stan</w>
atis tical</w>
af▁ ety</w>
Prov in▁cial</w>
O E
J ud
C er
▁th r▁ough</w>
▁th rew</w>
▁sn ow
▁recru ited</w>
▁re verse</w>
▁prec ed
▁o uter</w>
▁impris onment</w>
▁hy un</w>
▁fin ancing</w>
▁eas tern</w>
▁des truction</w>
▁S ar
▁Pur suant</w>
▁Pal ace</w>
▁3 .
wh▁ ile</w>
un ive▁r
ular ities</w>
u e▁s</w>
ser▁ ve</w>
r▁es▁ ult</w>
r u▁n</w>
pen s▁
ou ses</w>
m eter</w>
g am▁es</w>
er▁ n</w>
en▁t ary</w>
d eal</w>
c▁om ing</w>
coo p▁er
acc ide▁nt</w>
M r.</w>
M ex
L ove</w>
D▁ ay</w>
Ag en▁cy</w>
1 00
,▁ 000</w>
&ap▁os;▁ ve</w>
▁under go</w>
▁special izing</w>
▁rel ieve</w>
▁op tions</w>
▁mot or
▁id e
▁heal th
▁for ming</w>
▁cur iosity</w>
▁concer ts</w>
▁a h</w>
▁Sy dney</w>
y▁ eong</w>
unte▁ er</w>
trea tment</w>
t our</w>
sub scri
plac ▁es</w>
oper▁ ating</w>
l▁ o
l oo▁k</w>
i▁ e</w>
ind u▁stry</w>
in ema</w>
h ang</w>
g▁ ame</w>
f elt</w>
ell ence</w>
eb ack</w>
d▁em a▁nd</w>
c au▁se</w>
bus y</w>
ar▁ ks</w>
ac ro▁ss</w>
K ing</w>
▁z ero</w>
▁sl owing</w>
▁repres ents</w>
▁rem ote</w>
▁philos ophy</w>
▁k ey
▁hot els</w>
▁en ding</w>
▁comb ines</w>
▁abnorm al</w>
▁With out</w>
▁S k
▁N ob
▁M unicipal</w>
▁C E
▁All ow
wi▁th o▁ut</w>
wh▁ y</w>
stu▁d en▁ts</w>
sever ▁al</w>
se o▁ng</w>
r▁ ow</w>
po▁l ice</w>
per or</w>
p a▁y</w>
o▁ ci
j eo▁ng</w>
emb ly
d▁ on</w>
del eg
co al</w>
be▁ for▁e</w>
ar i▁es</w>
ar io</w>
ann iversa▁ry</w>
af ts</w>
ac ent</w>
R▁ oh</w>
Pen insula</w>
E ast</w>
Bus a▁n</w>
A gency</w>
▁renew ed</w>
▁rem od
▁pregn ancy</w>
▁postpon ed</w>
▁med ic
▁investig ative</w>
▁des ired</w>
▁commerci alization</w>
▁c uts</w>
▁Nam yangju</w>
▁G olden</w>
▁G ender</w>
▁Comm unication</w>
▁1 ,0
so▁m e
p▁er▁ iod</w>
produ▁c tion</w>
opin io▁ns</w>
on line</w>
m▁ al</w>
m ur
ic▁ ies</w>
g▁r am</w>
for▁ ce</w>
ew ay</w>
el ▁s</w>
b▁e e▁n</w>
C iv▁il</w>
▁un stable</w>
▁tr ag
▁scre ened</w>
▁s ang</w>
▁reven ues</w>
▁rep utation</w>
▁manufactur ed</w>
▁faith fully</w>
▁cl ause</w>
▁c r▁
▁borrow ed</w>
▁aut onomy</w>
▁P ress</w>
▁L os</w>
▁G apyeong</w>
▁Fl oor</w>
▁B uk
tur n▁ed</w>
sem iconduc
r▁e port</w>
resp o▁n
prof ess▁
pre v▁
o▁ d
out si▁de</w>
involv ▁ed</w>
f al
e▁ pt</w>
e▁ duc
dom in
conditi o▁ns</w>
conditi ons</w>
ch ase</w>
busin esses</w>
any▁ thing</w>
ann o▁un▁
SE AN</w>
Ordin▁ an▁ce</w>
20 20</w>
&ap▁os; r▁e</w>
▁st ation
▁op posing</w>
▁mois ture</w>
▁m in</w>
▁ch ampionship</w>
▁cap tured</w>
▁Nex en</w>
▁Baek je</w>
w ait</w>
sy▁st e▁m</w>
shi▁ ps</w>
re pr▁es
ma▁ k▁e</w>
im ate</w>
coun ting</w>
cos ▁ts</w>
ce▁ pt</w>
brief i▁ng</w>
ak er</w>
ac▁ ks</w>
Y ou</w>
L an▁d</w>
7 6</w>
▁w ild
▁thea ters</w>
▁necess ity</w>
▁dro ve</w>
▁di ab
▁conver gence</w>
▁attemp ts</w>
▁ar t
▁ap ology</w>
▁T ong</w>
▁D obong</w>
wit h▁
un▁ d</w>
tr▁ ip</w>
ta▁l k</w>
reason able</w>
re form</w>
man a▁g
it e▁ms</w>
it a</w>
id en▁ce</w>
duc ted</w>
d able</w>
c as▁
bi▁ll ion</w>
ai▁n ed</w>
Rus s▁ia</w>
L ocal</w>
F am
A M</w>
▁tr acking</w>
▁s ight</w>
▁rob ots</w>
▁restor ed</w>
▁ref res
▁qu it</w>
▁oper ational</w>
▁mus h
▁l iver</w>
▁l acking</w>
▁for ests</w>
▁draw s</w>
▁d ried</w>
▁crow d</w>
▁architec ture</w>
vol u▁n
un▁ it</w>
ult▁ ure</w>
s▁ ea</w>
st an
s eon</w>
re▁su▁l ts</w>
rai▁ se</w>
pre p▁ar
no▁ un
iz er</w>
high▁ ly</w>
fin an▁cial</w>
ecess or</w>
di plom
di pl
c▁om p▁
crea ti▁on</w>
cons▁ um
consid er▁ed</w>
competi tiv
comm itte▁e</w>
bur d▁en</w>
al▁ ty</w>
al i▁ze</w>
W e▁l
M a▁y</w>
J▁ in</w>
H▁ an
▁ter minal</w>
▁syn ergy</w>
▁st eering</w>
▁sh ut</w>
▁l aid</w>
▁fea tured</w>
▁exc ess</w>
▁dec ades</w>
▁cri tics</w>
▁bas ement</w>
▁a t▁
▁a fte▁r</w>
▁Th us</w>
▁P aulo</w>
u▁n ique</w>
u ary</w>
s▁ing le</w>
st▁ ep</w>
st▁ ar</w>
sh o▁ws</w>
sem icon
re in
pos sibili▁ty</w>
p u▁t</w>
p eti
own e▁rs</w>
negoti ations</w>
form ance</w>
e▁l t</w>
employ ed</w>
cust o▁m
c e▁nt</w>
arb ucks</w>
ana▁l y
D I</w>
7 8</w>
▁tend ency</w>
▁st agn
▁notic eable</w>
▁l yrics</w>
▁k ill</w>
▁enthusi astic</w>
▁do ors</w>
▁che ese</w>
▁V eter
▁St atistics</w>
▁M icro
▁D al
▁C alifornia</w>
▁8 00</w>
val uation</w>
techn▁ ology</w>
sched ule</w>
r▁e p▁ort</w>
particip ate</w>
o v</w>
m▁ is
i▁c al</w>
im p▁rov
ili ans</w>
f ees</w>
educ ation▁al</w>
ec tly</w>
dire▁c t▁or</w>
d ire▁ct</w>
at oes</w>
as m</w>
P eople</w>
M O
Govern men▁t</w>
▁wareh ouse</w>
▁th row</w>
▁separ ation</w>
▁r ear</w>
▁qu ota</w>
▁per ▁
▁newsp apers</w>
▁inquir ies</w>
▁helicop ter</w>
▁class ical</w>
▁arr ang
▁T ong
w▁or ld</w>
th e
s▁ ame</w>
su▁ b▁
sa▁ fe</w>
pas ▁t</w>
o▁n g▁
of▁f ic
mov eme▁nt</w>
j u▁d
i▁r l</w>
inc▁rea se</w>
im pr▁ov
emb▁ ers</w>
dr am▁
contin ued</w>
consecu ti▁ve</w>
a▁n c▁e</w>
U r
C ar
▁tou ching</w>
▁sincer ely</w>
▁s y
▁qu oted</w>
▁new sletter</w>
▁l ies</w>
▁inf ection</w>
▁inc idents</w>
▁P utin</w>
▁M e</w>
▁Lt d</w>
▁C O
w ill
pres ent</w>
n ee▁ds</w>
it o</w>
e▁n t▁s</w>
ey▁ es</w>
equ i▁p
ec▁ on▁
ea ge</w>
c▁ ould</w>
bea u▁
at▁ is</w>
as er</w>
administr atio▁n</w>
ac ed</w>
Y ork</w>
W o▁r
&apo▁s ;
▁uplo aded</w>
▁t ank</w>
▁r ub
▁public ity</w>
▁n eu
▁mar itime</w>
▁lic en
▁hon est</w>
▁h ea▁d</w>
▁fe ed
▁exc eption</w>
▁def eated</w>
▁ass essed</w>
▁al liance</w>
▁advant ageous</w>
▁Ren ault</w>
▁Panmunj om</w>
▁P a▁rty</w>
▁Manch ester</w>
▁G all
u▁ sing</w>
ser i▁es</w>
ro a▁d</w>
ophis tic
ol ine</w>
of t▁en</w>
nu▁m b▁er</w>
n t</w>
it a▁n</w>
im▁ pro▁ve</w>
g▁ il</w>
form▁ ed</w>
for eign</w>
e▁ lo▁
ea▁ l</w>
b▁ ak</w>
b ook
a▁t in▁g</w>
1▁ 1</w>
▁w o▁n</w>
▁sear ched</w>
▁rem emb
▁quar ter
▁pain ful</w>
▁occup ied</w>
▁mus icians</w>
▁fr amework</w>
▁entr us
▁econom ies</w>
▁doub t</w>
▁d ess
▁cy ber</w>
▁acknowl edged</w>
▁P angyo</w>
▁Chr ist</w>
▁B undang</w>
▁2 2
u▁r al</w>
t▁ est</w>
s en</w>
re▁c eive</w>
prac tic
op▁ le</w>
l im</w>
import ant</w>
h▁ y
ho▁ od</w>
h ans
h and▁ed</w>
gen c▁y</w>
ew o▁rk</w>
eal and</w>
den uclearization</w>
den ed</w>
d eep</w>
com ed</w>
ass aul
ann a</w>
abil iti▁es</w>
ab road</w>
T a▁
P u▁
Feder ati▁on</w>
0 4</w>
▁veter ans</w>
▁reb ound</w>
▁qual ifications</w>
▁port al</w>
▁off▁ icial</w>
▁challeng es</w>
▁T omorrow</w>
▁S t▁
▁Cooper ation</w>
▁C amp</w>
v o▁
u▁ me</w>
sho▁ w</w>
ra ised</w>
pro▁duc t▁s</w>
offic ▁er</w>
m▁ ajor</w>
f▁ i
fras tru▁c
es ity</w>
en ti▁ng</w>
de▁ al</w>
d am</w>
co▁mp an▁y</w>
Sep t▁
J ▁ung</w>
IC E</w>
Div isi▁on</w>
D s</w>
▁th in</w>
▁rea ders</w>
▁organiz ing</w>
▁ob taining</w>
▁k n▁
▁do zens</w>
▁L ifelong</w>
▁H aving</w>
▁B roadcas
w▁ n</w>
vis ion</w>
t▁ ion▁s</w>
respon sib▁
publ ic
j o
includ ▁ed</w>
in ity</w>
ig ation</w>
gr▁ ow</w>
e▁st ate</w>
est ab▁
ec▁ k</w>
e try</w>
dir▁ ec▁
difficul ti▁es</w>
co▁mp▁ any</w>
coll e▁ge</w>
cer ta▁in</w>
am ination</w>
P A</w>
▁vol ati
▁t ea▁m</w>
▁su its</w>
▁spl it</w>
▁men tion</w>
▁l uck</w>
▁inv itation</w>
▁i ll</w>
▁Offic ial</w>
▁G ong
▁B ong
▁Angel es</w>
▁5 4</w>
wr ong</w>
wit▁h out</w>
w ro▁
ten d</w>
st▁ ory</w>
some▁ thing</w>
p et</w>
o▁ k
oo d▁s</w>
oc ate</w>
mos ▁t</w>
intro du▁c
impo▁r t
herei▁n a▁ft▁er</w>
h is▁
ft op</w>
e▁c ti▁on</w>
e▁ sti
er a▁l</w>
do g</w>
cur▁ r
b▁ ette▁r</w>
ail ▁ed</w>
9 1</w>
8 2</w>
▁y uan</w>
▁wor ldwide</w>
▁shor ter</w>
▁predic ts</w>
▁over time</w>
▁mo▁n ey</w>
▁l an
▁indic ating</w>
▁in scri
▁guarant ees</w>
▁gr ammar</w>
▁exten uating</w>
▁excav ation</w>
▁exam ined</w>
▁displ ays</w>
▁comp eting</w>
▁c eiling</w>
▁bec ▁
▁I I</w>
tr▁ ol</w>
trav▁ el</w>
to▁ p</w>
s▁h ow</w>
s▁ ex</w>
s▁ aw</w>
su▁p p▁ort</w>
sp okes
soci e▁ty</w>
s ely</w>
rul ing</w>
rea s▁on</w>
onom o▁us</w>
o ther
mod el</w>
ma▁ king</w>
jud▁ g
in▁ at▁ion</w>
inst all▁ed</w>
im pres
exam inati▁on</w>
ex clud
ec tious</w>
d▁ et
d an</w>
c▁l ass</w>
c▁ s</w>
c▁ en▁ter</w>
arres t▁ed</w>
Univer s▁ity</w>
Ta i
F estiv▁al</w>
Elec tr
Dem ocr▁atic</w>
Com pl▁ex</w>
▁v alley</w>
▁there for</w>
▁ter ror
▁sti mul
▁sea food</w>
▁oblig ation</w>
▁fail ing</w>
▁all ey</w>
▁S an
▁Memor ial</w>
▁M ark
▁H igh
▁B yeong</w>
wi▁ n</w>
wh▁ ether</w>
un iver
t an</w>
rec▁ ently</w>
re fo▁rm</w>
pr▁o b▁lem</w>
prov inc▁e</w>
prepar ▁ed</w>
min ut▁es</w>
le▁ m</w>
l im▁
is c
gov▁ern ment</w>
electr▁ ic</w>
eb a▁ll</w>
cre d▁it</w>
bas is</w>
b its</w>
a▁ w
air y</w>
6 9</w>
201▁ 8</w>
0 2</w>
▁w eigh
▁shut down</w>
▁reti red</w>
▁ren ov
▁r ough</w>
▁pri zes</w>
▁occup ation</w>
▁mer it</w>
▁manag es</w>
▁foc uses</w>
▁dis ability</w>
▁d ic
▁ch ap
▁bo ats</w>
▁Os aka</w>
▁M un</w>
▁M a
▁As ked</w>
tu al▁ly</w>
t een</w>
stud y</w>
res ta▁
res earch</w>
perfor▁m ance</w>
op es</w>
lo▁ oking</w>
it ement</w>
hel▁ p</w>
h ap
ep ts</w>
dep▁ th</w>
c▁h il
b▁ el
bi▁ g</w>
b ur▁
ag r▁
S▁ chool</w>
P G</w>
Gw a▁ng
7 1</w>
▁wind ows</w>
▁tran sition</w>
▁tr ucks</w>
▁p acked</w>
▁neglec ted</w>
▁l inking</w>
▁ju ice</w>
▁facilit ate</w>
▁exempl ary</w>
▁dis inf
▁d ad</w>
▁comp an
▁commemor ate</w>
▁car di
▁accur ately</w>
▁T ime</w>
▁Or ig
▁Isra el</w>
▁Exper ience</w>
▁4 7</w>
▁20 21</w>
w ed
us ter</w>
ur c▁h</w>
un ▁e</w>
t om</w>
s▁ ure</w>
su ffici
si bl▁e</w>
relation sh▁ip</w>
reduc ti▁on</w>
real ity</w>
prom ot▁ed</w>
ord i▁n
ok cho</w>
mut at▁is</w>
ligh ted</w>
law m▁ak
incr▁ eased</w>
if iers</w>
h us
f▁ emale</w>
exp▁ ec▁te▁d</w>
es try</w>
ee▁ ded</w>
e els</w>
b ut
a▁ ir▁
ann u▁al</w>
an t▁ed</w>
Pyong ya▁ng</w>
Indus ▁
Ch e▁
C our▁t</w>
▁wor e</w>
▁sp oke</w>
▁s eller</w>
▁rea ppoin
▁rank ings</w>
▁o the▁r</w>
▁f ly</w>
▁er rors</w>
▁def endant</w>
▁bl ocking</w>
▁be in▁g</w>
▁ar tif
▁acqu ire</w>
▁abol ished</w>
▁US A</w>
▁KE PCO</w>
▁G eo
▁Ch ild</w>
z o▁ne</w>
y ro
ub erc
tr i▁ed</w>
th e▁n</w>
scor ▁ed</w>
pr a▁c
por ary</w>
pay ment</w>
oun▁ ds</w>
orig in▁al</w>
organiz ation</w>
o tive</w>
m▁ ar
i▁n v▁
in ki▁ng</w>
facil i▁ties</w>
c▁r▁ea te</w>
c ue</w>
ari at</w>
ar ea▁s</w>
amp ions</w>
Y o▁
Un ited</w>
T E</w>
P y
Co▁un cil</w>
▁wh▁ en</w>
▁reserv ed</w>
▁pres ents</w>
▁pres enting</w>
▁lod ging</w>
▁l ift</w>
▁l augh
▁execu ted</w>
▁deliber ated</w>
▁del eted</w>
▁d oll</w>
▁comp uters</w>
▁bas ketball</w>
▁b ound</w>
▁ar ise</w>
▁Y eo</w>
▁St arbucks</w>
▁B ro
sur g
p as▁
mov▁ ie</w>
id em
ick▁ ly</w>
h w▁a</w>
f ath▁er</w>
em en</w>
canc▁ er</w>
adem ic</w>
Me▁ tro
Ma▁r ine</w>
Jap a▁n</w>
H e▁al
En vir
Don a▁ld</w>
13 ▁th</w>
▁work places</w>
▁telecomm unications</w>
▁sever ely</w>
▁refr iger
▁min i</w>
▁lea k</w>
▁gr as
▁exam ining</w>
▁ex trac
▁believ ing</w>
▁N etwork</w>
y esterday</w>
t▁h rough</w>
t▁ uring</w>
str▁ uc
s om▁
pro pos▁ed</w>
play ers</w>
p a▁re</w>
ori▁g inal</w>
me▁n ▁t</w>
iv ▁al</w>
in e▁ss</w>
hol iday</w>
e▁ ach</w>
ess e▁d</w>
ed u▁c
crea▁ t▁e</w>
c an▁
b in</w>
av ail
ar ly</w>
al▁ leg
Tr ade</w>
Sam▁ sung</w>
M▁in▁ istry</w>
L▁ im</w>
F ish
▁r ing</w>
▁plat forms</w>
▁p etro
▁flo ating</w>
▁am o▁ng</w>
▁S and
▁S ales</w>
▁Net flix</w>
▁D ae
ye▁ ol</w>
un ist</w>
u tio▁n</w>
tr▁ ation</w>
to▁ ur</w>
st ation</w>
s ent▁
prof ess
prescri b▁ed</w>
on e▁s</w>
ol der</w>
l at▁er</w>
i▁s ter</w>
hol di▁ng</w>
h an▁ds</w>
for c▁ed</w>
end i▁ng</w>
c▁h o
cl ass
ar d▁s</w>
Febru a▁ry</w>
▁weak ened</w>
▁t igh
▁prov isional</w>
▁fish eries</w>
▁fin ds</w>
▁as leep</w>
▁Tor onto</w>
▁An n
▁Ad v
techn olog
sec u▁re</w>
sch ools</w>
s elli▁ng</w>
ro▁ w</w>
p▁ il</w>
particip ati▁ng</w>
p t▁ion</w>
p en▁
l eme▁nt</w>
l ation</w>
ien n
g roups</w>
fi▁ ts</w>
e▁t c</w>
ev ▁e</w>
ef▁ ul</w>
ec ti▁ng</w>
d en▁
at o▁r</w>
am ics</w>
all yu</w>
al ong</w>
ag ainst</w>
ac les</w>
Pro t
Ja▁p an</w>
H ▁u
C r
A R</w>
7 3</w>
1 .5</w>
▁relig ion</w>
▁prov ed</w>
▁peac eful</w>
▁lea kage</w>
▁ex agg
▁calcul ating</w>
▁M u
▁M ag
▁E th
▁&ap▁os ▁
zh ou</w>
w as▁te</w>
there of</w>
s ym
purch as
j oo</w>
i▁sh ed</w>
ir▁ d</w>
cus▁ tom
b▁ ody</w>
a▁ir man</w>
an▁g es</w>
Y eon</w>
S ang
K i▁ng</w>
Gyeongsang nam</w>
9 3</w>
19 ▁th</w>
12▁ th</w>
11▁ th</w>
▁sur g
▁st uck</w>
▁rel uc
▁har sh</w>
▁expec ting</w>
▁cho osing</w>
▁Par ents</w>
un k
ul▁ ty</w>
t▁ al</w>
th▁ er▁e</w>
si▁ ons</w>
s qu
pur pose</w>
oth e▁rs</w>
o o▁t
jo▁ b</w>
iz ▁es</w>
ind▁us try</w>
im age</w>
id ate</w>
i ang</w>
hou s▁
for c▁
equip me▁nt</w>
em et
contro versy</w>
c ol▁l
Y ou▁ng</w>
O▁ ff▁ice</w>
Hy▁ undai</w>
F ebruary</w>
Ch eon
A m▁
& gt;</w>
▁there fore</w>
▁on going</w>
▁me ant</w>
▁low ering</w>
▁instruc tions</w>
▁f eed</w>
▁eat en</w>
▁consist ently</w>
▁Un fortunately</w>
▁O r</w>
▁Hist ory</w>
under▁st a▁nd</w>
um ing</w>
uc▁ l
rel▁ evant</w>
our▁ ce</w>
mee▁ ting</w>
is▁ su
gi▁ v▁e</w>
e▁ f
ev ents</w>
eg un</w>
cou▁ ldn</w>
chi▁l dr▁en</w>
b▁ ur▁
a▁n s▁
F r▁ee</w>
▁w ireless</w>
▁sk ill</w>
▁sched ules</w>
▁ret ail
▁rec rea
▁r a▁
▁pain ted</w>
▁ob serve</w>
▁gl ad</w>
▁dis sem
▁cap able</w>
▁accept ance</w>
▁Pro gram</w>
▁4 9</w>
y▁ ong</w>
web site</w>
us s</w>
un i▁on</w>
t as
st or▁es</w>
r u▁l
pl ane</w>
o▁n line</w>
ov▁ er▁n
or▁ k</w>
ol▁ og
l an▁
iv▁ id
h▁av ing</w>
e▁n ough</w>
ell ers</w>
ea tly</w>
des p
d e▁n
d ea
custom e▁rs</w>
charg es</w>
ch ann
c au▁
an d▁s</w>
al▁ read▁y</w>
ag enci▁es</w>
ab l▁
S a
De▁ f
▁suspec ts</w>
▁serv es</w>
▁res trict</w>
▁pos itively</w>
▁occ urrence</w>
▁grea test</w>
▁fl ows</w>
▁en ro
▁cover ing</w>
▁M ake</w>
▁Con troversy</w>
▁Chungch eongnam</w>
▁B or
▁200 3</w>
u▁n d
un it</w>
t▁ ain</w>
th e▁rn</w>
sh ow
s sive</w>
r▁ef er
p▁ en</w>
loc a▁l</w>
is i▁ng</w>
head quarte▁rs</w>
gr ounds</w>
fav or
f a▁l
establ i▁sh</w>
ellig en▁ce</w>
dea▁ th</w>
c▁h arge</w>
co▁un try</w>
c om</w>
c ell</w>
a▁c tual</w>
ar▁ es</w>
am ount</w>
Y i</w>
Tour i▁sm</w>
Me tro▁
J▁ap an</w>
▁var iable</w>
▁ten ants</w>
▁s eventh</w>
▁rev oke</w>
▁per petr
▁p ig</w>
▁govern ance</w>
▁em ission</w>
▁docum entary</w>
▁depos ited</w>
▁cool ing</w>
▁contribu tions</w>
▁conf idential</w>
▁ac id</w>
▁Yang cheon</w>
▁V R</w>
▁Fr anc
▁Bit coin</w>
tig ious</w>
seas o▁n</w>
re▁ f
res t
ph ot▁
o▁ ffi▁ce</w>
oo▁ m</w>
menti on▁ed</w>
lo▁ w</w>
li▁ er</w>
l ibr
i▁n s</w>
iz▁ ati▁on</w>
h ar▁d</w>
go▁ vern
f▁ are</w>
exp re▁ss
est a▁b
enti▁ re</w>
c▁ alled</w>
buil t</w>
a▁n ks</w>
a▁ il</w>
J anuary</w>
H wang</w>
F l
Ass▁ embly</w>
▁~ ~</w>
▁war nings</w>
▁occ asion</w>
▁mus cle</w>
▁gl ob
▁f ederal</w>
▁disc overy</w>
▁determ ination</w>
▁cong estion</w>
▁Wor king</w>
▁W e
▁St eering</w>
▁Se▁ oul</w>
▁O ver
▁K aesong</w>
ul t▁s</w>
t▁ ural</w>
sta▁n ding</w>
pres e▁nt</w>
pl a▁nt</w>
perform anc▁es</w>
o▁ sed</w>
l em</w>
is ive</w>
indus tri▁es</w>
igh t▁s</w>
h air</w>
govern i▁ng</w>
[...]
